110000101011000000011000000010110000101010011
000000100110111101000001111000011001000000001
000011011110111001010001000101011001101101010
100001011100000010110000011010011011100001010
000011101001000101100100100000110110101000111
111001010000010000100000010001100110110001001
000001000010100010010000001110010100000000010
010110011010000000000101011010000111001001001
010001000011011000001100010000001111011011110
000100110101100000110000111011010000100011010
000101101101100000100001110001001110101011001
100010000100101101100000100000100000110001111
010001010110101000110000011000011101011110110
000010011101000001101111000010100101000101100
011001011011000000010100110110010011100010000
101101101100110010001101001011010000100010010
110000000111010110100000000110111000000011111
000000101010000111000111001001100100010110101
000101110101010111001101111100010001000000100
010000000110010110001000000111001100001111110
111111011111111100111111100011111111011111010
001001001000011111001001001111001100000001110
000101000010010000001110110101101010110011000
001101001000000110001111001101010100010010110
001000000101000101000100100000000001000000000
110100010101000011110001001110101001110000000
001000111011000101011100001100101000101000011
000001101111001101001111100110110110100100001
000000100100011100000011001010000000000100000
001000101101010011101101000010110100100100100
100100011111111000011000100100000010111000000
001110001001000111000100000011100101100110110
000110000111011111000001111110011010100111010
001000101011001001001010011110001100100001001
101100101011000000111101000000011000010011001
010000000010001100010011010101011011000001110
001001000001000101001101100110001110100011010
111010000011101000000011010110011001100110010
011000110100000110110000010001000001001010010
110110111001100011011100100110000000100010000
110110111011111011111111111101011111100111011
010011001101001110010011000110001000010001100
110110001010000100001110100010100010010101000
000000010011001101011011110000000101010010100
101000110000100010110001001001011010101010001
000100011000000110010001011110001111101000000
000101100010100100000000111011100010000110010
001001101001101001000111001110110101100100010
100000000000000000000000101000000000000011000
011100000110000110100010010000100001011000010
010101000110001110110100001100011001011010000
000101000011101110001111110000010110010000100
100101011011111000100001101010000111011000000
010101100101101000110100011110010001000011010
010000100000001101010010110001001010001011011
110101000111010110011000101001011100000011110
101010110100000010110001001111000100001011000
110010110100110100111000110011000001100100010
000110100100011000111010100110110110100001101
010001001010111000011000000111100110101100010
001011100000000110010101101110100000110101010
110101001011011000001011010110111010100110000
000101100001010010010001101111100111101000000
010100100111100101000101100010001110000000101
001011010001100111000100101100010011101010011
110000111011000111000000001100000011001000000
011001101100110000000000010110100110001010011
111111011111111111111011011011100101101111011
001011010010111001000100110110011011101110000
101010000001111000101101110001100010011001001
110001000100001001110100011000001001110000001
011101001101010010100100000100011001000001011
101001000110111000111100000000101000110001011
001001001001010011001000001011000110100110100
100000111011000111000011101000000011011001000
010101111011100010111010000011011000101010010
101010000010111000000110011101101001000011011
100100000010000101000010010011101000011100011
101000101111000000101110100000110010010100001
001010000100101011110101001000100101110101001
000110111001010000010000011111000101101001000
000100110110000000110110110000000011011001001
000101100010111001000101100000000011000100001
010000010000010000010000000000001100001100100
010000111011001010010000000111011000101000010
001110010100000011110010000000000101011101001
001001010000100100001100110111010010101010001
001100100001001100000000111001101010011011001
011011010010011000110001010001010000011001010
001111000011001000011111110111100000100111000
001000101000001001000000001001000000001000000
001111010011101000111111110010110000000110000
100011010010001101001000110110000110100100001
001010111001001100001100100001100010011011000
101111010000100100101000101000011101001000111
000100010011001101001100010110110110100000001
101001000100001001110001010101010000100011001
011001011001010000011000010111011000000001100
100000010011001110001100110110000110100001011
001100100110110000110100010001000110001010001
000000010010101110001111100011100100000110111
010000010011000100100000100101101110001100101
001010111001001100011000101001010011010110000
110000000000000101000000100000000010000000001
000101001000111001000111101100000111101001100
001000001011100011000000000110000110001000101
001000101001001101000000110001111000011000101
001010101000000110101110000101000100101000111
000110110010000100001100110011100110100100000
000010011110100000000011011000011111100000000
110101101010000110100000101010100000010100010
100101101011000101010001101010000101111000010
001101101001001010010101000110101000100101000
000000011110100000101000000000011111001000000
110000001101100101101000000010000101100000110
000000101101000111000000100011000100101000111
101110110010111000000000011011011101111000110
010010110100000110101010110000100001110111010
010101110000101000010010111111010001101011010
011010110010110000001011110111000010101100000
001000000111011101000010111110011010000000010
100100000100010110110000000100000001100101111
101010010001100000000000001010100101111011110
001100011001100111001100101001000010001010000
001110001100011011100101000110110110000110000
111010101011000000001011000110100001100010011
011110010001000000001000110001100010011001001
001010001001100011000010000010110110101100111
001000100001100101100000110010000110000100101
011100001001000011000000001001100110101010100
100011101100000010101110000111110010000100011
000110010011110111001010101110001010100000001
100110110000110000111100110011100001100110010
001100000010110111000100010010100011100110010
011110110110100111010000100001000010011010000
000111001010111100000101111100000010001010000
011010000001000000001111010000100111011110001
101001001000010111001100100001001110000111101
010000010000001100000001010010000010000000100
101000101001010011001000001110000011100000000
101000001101011010101000000100111000000010011
011010000101000001110001010011110000110100001
001101101011101101001010001110011001100000001
010111000101100011110001001110001000011100000
000100010101101110011010110100010000101000110
010101011010000010000000011010010111101000000
001000110101000000110010010011000001100000010
111000000010101000010111110000011001001110110
000100010000001000010101101000111101011000111
011010000000101101010101100111001000001000011
011111000011101101001100010110111000100001010
101010101100110010110010000110000100000010001
001010000011001101000101001110011001110101000
010010000110100110101100110010101100001001110
100010101100001010001011111011011010100001010
101110000101001010100111001110010100000010011
011011000110111110110111010000011001001001000
000001101010001110011000100001011000011000010
100011101111100011011000000010100010000110001
001100101001100101000100001100101001011011001
001001000001000110100110010000111001011101110
011001010101011011101001011110010000010000100
101011010010110000001011110011001101100001111
010000000010100110011010110110001010000001110
010100111010001010010100001100000011111111000
001001001010010011001010001001100110101000101
000010010100011000110100000100011110111001001
101101000100100100101010001101110101000000111
000000000101011000111010101100100100110111111
001000100110000010110001010001000100011001001
101101000100000000110000010001000110110100001
001001101011011101000111001100010000001100001
100011101110000011101100100100100010000100001
001110101001000011000100000111001101100001011
000000110101000101101010111010000010100000000
101100001001110001000111001010000111101111000
001000110010001010110010101000000001011101100
000000011010001001000000001110011111001110100
010000111001001010001000011111000011100000000
100100001010010101000000111110010110000000111
100000110000100000010000010010000000000000010
110011001101001011110000001111000010010000001
000101110000010000000000011111000101011001101
110010011000000010001010010100100111100110001
000000101001010011001000001011000110000100100
111100100010000110001000001110011000110100011
100000011010000111100010011110000101100100110
010010000010101110011110100100001000001001110
101111011001000100011001100111011010100001000
010010000011001100011000110000101100011110110
011010110100100111011011100001000000011100000
100100010000100010111100010010110001100010010
001100001000011011000110001011111110001010100
011101000011100100000010110010101011000011000
000001010010000100001011110001110111011111100
011000110011110100000101110010100010000011000
010000111000100001100010000001111110010100101
000101010110111010101101110110110000000000100
000000100101101010011010101110011010010110000
000100010010000001000000000010000000011000001
111100000111000111101011010010011001100011110
000000111101001010011111100110010000101001000
011110010010010011110000000001000001011010000
011110101100000011100100001001000000011110000
010010010100000111110000001100001011011000000
001001100000100010000010000000000001000000100
110000100010000100000010111010001010110101000
000111101000111010011101000110101000000111000
011100000000000001000110111111011011101010000
011000101001000001100000001000000000000000000
100111001100010011110000001010000100010101101
011100110110000110110110010000000010011000000
000000110101100101010110010000110010101110010
110001000101010101101001001110001000100000011
011111000100010011110100001000101101110100001
001000001001010011000001000111110110100000110
110111001001010000011000010101001111000001010
101101000011101010101111110110110001100000010
011010101011010000000001010111000001100001001
101000101011000001001000001110001010100111001
010000001010000101101011100001111011000100100
100100101110000000011101100000010110000011001
010100111110000010100000111011100011010000000
001000110101000000010000011111000001101110010
100100001100110001111111000111001000101110011
011001000110101000111010000001011000001110011
011010110000000110010001101100010101101000000
010100000111100111011001100011110100000100110
101011000110100000111111100000110000000001001
011101100111100101001101000110000110001001001
011010100101010001100000010011001011001011011
001001111000010000000000000000100000000000000
011110010101100011010100010000100001110110010
001101100010000101010100100000101110011010001
101000101000100001110010000111110000101000011
011010000011100000001010110111110010101000001
001110111001000100010011111111110010000111000
001001001100110001100100000110000101100100111
011110000010010000100010110010111010011010001
011100010000111000100101010001001001011010011
001011010010010110100001010000010001010010110
100100001100010001111000000011010000110010011
111111011111111011010111111110111111111111000
001001111011010101011000000111100001101000010
001101010000111010001111010100110001000000110
100010011101000010101100010011110011100101000
100100111001000100011000100100100010101000001
100000000000000001010100010001000000001010111
000101000010010101000000011010100001010000110
100000100000000110101100100000001010101010011
100110100011100101010100000001000000011000011
010010000101111110110000011010110001100000010
110000110110010110101000110001011001000011110
000010011101100111011100010100001001100011010
001000101111100011000100000010001100100111101
100000011100100010111011010110000111100000000
