10101000111011001000000110010001001101110011101010011001000000011000010010000100000011011000001100101101000110110010101000001001
00011101100001111111010011100000110001001100010001110111111101110100011101000111111010011111100010000000101000000101110011100101
00100011000000011001111001011000000010000000001100000000001000000001001000000011001110101010101010100101000100000001100100011110
00010101001000111110010011111000110100101110000001110101111110010000011101000111000001111111011111100001111000100011000100000011
10101100000001100111110001010111111000000000000101001110000101101011111010111000011111100110011100000110000001110100011001000011
01000000011110010000010100001101011110010001110101101010000110000111100101010111001000111111000001011111011100110000011101100000
00011111000000000100100000001110111110000011110001001110000000001010100000100000011010010100001100000010000111110101101101000000
01000011001110010000011000101110000001101100011010100111101001000011101100110111100001111011100011110010111100000011111101011110
00010001000001111111100011111000110011101110001001000101010000010010011100100111011010010111100100100110101010100000010101000101
00000010000000100100011001110100000000000010010001100010000011000000010000000100011011000111000000001010000101000111000001110000
00110001010000110100000010000000000000100001101000001011100001101001110001000110000011001011100010101010010000010101000101000110
11110000111111100010011110000101011000101100000000100111001000111100000001000000001000011110000010100110000001000110000000100100
01011000010001010001011011010000000000000000100100001011101000000001110100010001110010000000100110000110000000000100000000100001
10111000100011001010000010100000100110011011010110000110000101100000111110011100000000000000011010111111000011000000010000111110
01110010001010100001000011010000110100000100000100000101001001000000000011001101001000001000100011100100001001000010000100000000
11111000110110100001100000010001100110010000000000010000100111001000001011001100001001000000000100010011000010001000000000010100
11001111100001111111001011110000110111111111000101111001011100001000011111101001111110000100011110111101100000010101100001011010
11111110111110010111101101111111110111111111111101001011011010011111111111111110111110010101001100111101000111111111100111111001
11101111110010110111001100111111110111100111111111011011111011111111110111110011111101001101001101100011100001010000100101111100
01000100010001001000001000000010101010001010000010000000100000000000010111011000100000000000010010010000100001001000010010000010
00000000001000111111110011111110010101011110001101011101011100010000011100000011011110011111100001001111110000000000000101000001
10000000000000001101010111011001101100001011100010100101100001011000111110011000111100010000000111110000110100000010010100000101
10111111101011011111110111110100101100101111101111111001100111111101011100111010110101110101011011111111101111011011100110111010
01000111101110000000010100000101000010100100100100000000101010001011111000011111000000111111000011010000111110010001111101101010
10010000001110000110111100000111000110000101000000100000000000011010000100001001000001110000011101001000000000000000100000011000
00001110110010001110001011100111101110011000001111111110100110100100100011001000111010000101011100111011001001111100001010100000
11110110111110000011011100000101000000110000000001110100001000000011100000110111000101111110000011100000110110000010010011110010
11010100111111000100100101010001011010110110001000101100001111001101110000000110011110000100010100100110000011111110100011110000
01001000110010001000001100000011000000100010011000000100101010000100000001000111000111001010011000000101001010110000000000000000
11000000101101110100100001010000000000110010010000001000010011000110000101001100010100000000100110000010000000000111100000010000
10100001000001110000010000001100111010001000111001101100010101000010111000111010110000000100011101100111001001100010001100100000
11101001001001110101110110100111010011111110110000111101110110111111011011111100111010110101101111010111111011110100101011111110
00010110000001001110000110000000110000000000000100100010001100010000011011000100001101110010000000000110000110100000100100000010
00000000000001000000010110000011000001100010001010001100000001000000000000010000010110001001110110001000001010000001011000001101
00000101000000011011000010100000110100001101000010111000100010000100000000100000100000001110100010010010010000001010000010000000
01001111001110000000100010101000001111001001111000001010100111100011011100000111100001011000010010000011001101101000000110000000
10001000000001011111100111111001110100000001000010111101101111010001000110011000111000011100010010110000011100000010011100110101
00110111101111111000101111001111101000101010101010011111100111111011111110111111100001111010011010111100101111100011111100100111
00000000000000000111000001000100010001100001010011000010010001000010000000010000110010010110010001000100100011000001100001011001
11110011011111110010011010111100111000011100011101100011011100110100001000000001000001010001000001100011111000000000011100000110
00000001100010000001000010011000001001000011000000100001110000001000100010111000000100010100000111111000111110000010000011000001
00010110101010000011111100111111000001100000101000110111111011110000000000000011101101101111001011100011001100100010101010111110
10000000100000000101101101001101010001100000000010011101100011011000010010000100111000011101001110000011000001011110010111000011
11000001111110001010011110100110100001111100011110010101111101111000100000000110000001001111100010101011100001111001000010000000
11111000101110001001001001100010110000001100000110000001100000001111000011111000100110001000000110000000100000001100000011010000
11001111011011001101001100010001111111000111011111111111111111011111111111111111111111001111111001011111010101101110011111111111
01010010011110000000100100000111000000100000100001110000001010000011100100111111001001011111000001111010011110110000111001010010
10001000110000000100010000010001100110000001000010000111100101101110111011111111111010000000111100000001000001011010000010100010
00001111110010001011001011100000100000111000011110110011101100101100010011111000110100101000011110100011101000111011001010000110
10111000010100010101000101010001001110010011101100110001100110010000000100000000101100010100001100011011011111111000001110110011
01100000010000010100100000011000001011100100000010101101000100011101100000000010000000100000110011010000110000000001100110001100
00011000001110011110010011101000101000000000000010110101001110011001110000100000101001000000100000100000000000000011110100010101
00110010011000000010000100001000001100100000110010000010001110110110001001100010011101000000001001000100000000010110110010000000
00001110010000000001110000010011000110000000101000111100001110100100101111001000001100100000111100101111001011100001101100011011
10111111111111110101011111111111101110110101110010001101111111000010101110111010011001011110001101100101011101111011111101011001
00000000001000111111111011111110110001101100010001011000011000110000010000000001111011001110100000001110010011110111110001111100
00000010100000000010110100000001000001100100001000100010010010011000111000000010000111001000101000000000000001001111000111000010
00010001001001111111100011111000010101101110011001111101011111100010000101000001111110011111100101001100110010100010010111110101
00000100101001001110001011101010100000001110000001001011010101100000011000000000011011010110100011101000110000000000110101101111
00110010001001111111000011111000110000001110000011100101011100010000011100000111010011010111100011000010111000000001110101001101
01010110011110000000011100100101000001100000111000100100001010010011101000111111000001111111000001100011010101100000011001100000
00000111000001111000000010011010110111111111100010011010100110100000011100001111000100001000110111111001110000000011101000011010
01000110000000000001000100011001001111010101100101011000010010000001100010101000100000000000000111011001011110011000000010100000
10000000000100000000000001100000111100001001010110100010101000111000110001010000010001000010100100100010100000001110100111001100
10000100000000000100010010110001000101011011000100000010100101000000000101000001110010101000101111010001100000101010011000011100
11001101010100010000010000101000100000110010000010000011010100001100010011010000010100110010100000000000001100101110000001000100
11111000111100100000000000000110011100001110001000000001000000001101100000000111000000010010000001001000011001100100000000000000
10000000100000001010010010001000100000101100000000000101110100010100001110010011000000011101010101100000110000000000111000000111
01110000010100110100000001110000000110111001001101110011100110010111011101110111110000000101001100011011001100011000001011110000
01111111001101010111100101101111000101110000001101000000011000000100010101100101011110010111100100000101000000011101100011011000
11110111111110000000000000000000000001111000011001111101001110000111100001111110000001101110100010100000000000100011100011110110
00001100000010001001100000000001001100000001000000011000000000000011100010110000101010000010000000010001001000011010000100100001
00000110100001000000000000101000110001100000000000011100011110010000101000000101000010000100100100101000000010000111110100101100
00000000000011000010010000000101000011000000110000000100000001100000100000001000000011100000111100101100000011000000001000001110
01000001000110010000100100001001001111100011100000001000011000010000100000001000000000010000100111110000110110001101100011101000
00000000110000001010000010110001111100001111000010110111101001110000001000000000001000001011000011110010111110000110011101000100
00001000000001011000000101100001001100010001000110100010000100000000001100000000100000010000000101000000001000000000000000000001
10001110001110000111100011011001101110000110100000001001000111001011100010111000101110000011000000000001010001010010000000000000
00010011100010001010001001000000000001000010000000110000100100001000110000000100000001000111110000110000000010000010100000000000
00011110011111101000111101100111111101000110001111011001110111010111101001111111011111100011011001000101011111011110101110111110
01000000010000010001001100011001000111110101100111100011101110010111001111111000111100010010011101111001011110010000001000000010
10101110001000101111000111111001111110010000100100110111001110000011111110111001111100000111011000000101010001011010001010010000
01000100011100000110000100010011000110010001101101101010101110001110001111000011110000101110000100011101011100010010011011100010
10110111101111100100000001100100101011101110001100000011000000101111111011111000010000000000000110001010000001101100000010000000
10000010111101001000000010000010100000000010000100000101010000100001101000010000101000000010000010100000110010010000000001000001
00000000010000010000101100000110100010000000100000000000001001010110010011111000011110000000100100000000000010110100010001000101
00111001000000111000000010000000100100101101000010100000101000100011111110111000100101001000101111010000111100000000101000011111
01000111001111010000011011001110100001111100001011000010110001100101000101000111100001101100011011000111111000001000001110000110
01111010101101100110110101111100001111111001100000010111111011110101110111101111101111111100111011010010110101101100101101111011
01000011011110110010010010101100101001011100101110000000100010100111001000000111100000111010000001100010111100000000000100100101
10000000101011001001100010010100100000101000001000101001000100111000011010101100000010000000100000000111100000000010100000001111
00111000001110000100000100000001000111000101100011110000101001001010100100001000100001101000001011011000100010000101100011011000
00001000100010001110100011110000000100000000000010110000000110001001100000100000101100000000000000000000000000011000000010100000
00010001000010011001000100010001001100101001000000000011100101010001100011101011001100010100000100100001001001011000000101000111
01111110010001110011100100111001011111100001101000001000001000001010000100000011000100110001001101011011001110110001100000011001
00100000000001111111100111111010110111101111011101100101111100010000010000000001011110011111100001001110010011000101100011110001
11000011010001000001100100001001010000011000001101110000010000110010001000000001010010010001000011000110001110000101000001011100
10001000000001011111100010110000101000010000001010111111101110110001100110111001101101001011000000000100000001001001000100110101
10000000100010000000011111010010100000111100000100000000110000110000001000000110000001101010010011100001110000101000000010000000
00000111100001111111100011101010010110011000000000101000101110100000000000000001001011000011110000000000101000000011000000011011
11000111000110000010100100000001000000110000001001001001111100111000000100100010010011011111000000001010000110000010110100100001
10001000101001001000000010101110110000101110001010000101100000111000011010100100000001011000010110100001100000011010011010000111
11110100011101100111101101101111011000000100010100011011000000001101000000000110011110000111110000000100000011100111101001000001
11001000111111000001100100001011001000100010101010001011100010011000010000000110000000111001011001100001010011110100001010000001
00110011010101111011110010111000111010001111101101011101110110110000001000000100000000111110000011000011111100100000011100000111
00111110000010110001000100000101000111110001000101010000010011010001100100011010000001010101000101111110101110000101111101011110
00000011110011000000010010110000000000100010100101111100100000001001000100110000001101101010000011011110000100000101011001001000
00100000110010010000100100110001001000001100011001101110010101101101001000000001001000010100100110101010101000001010101000000110
10111110100111101111111011110110110111011111011110111110101110001101111111111110011110000111101011110110101111111111111110111110
01001100100001001010101001100000101000000110010000010100001000110100001100100000000010000100101100100000011100100000101101100000
00010000011101111011100010001100111110001111101001000111010110110000001000000000000001111110000111000110111110100000010100000101
10001000000010010011000111110011100110000111100110110111110110011011100110111001111110000010011101011001011100010010001000110000
11000001000000011000000110011001111111100111100000101000001000001111100010111000101100000010100101010000011110001110000011000001
01000110011100000100000001000110010101000101111101010110011110000110000111000001111001000110010100011001011100011110000111100000
01011001111110000010100000000000000001101000001000010000100110101111100001111111000001011110000010100010000000100010010111000100
00011000010110111000010000011000100100001101110001100000000010000011001000000010000001001110010000110100010110000111001100001111
00000110100011100011001010000001000001000100000000101100100011100100011000010111110010001010000000100101000000001010110001000110
00000000001001110111100001111000010011110100011011101000110110100000011100000111111110001111100000000111000001100111100001011010
01110001001100110111100011111010010111001111111110001111000110010000000100000001011000011111100001001110010011100001100101001001
11000111110000000000110000011010101010011011101100000110100001101111111011101100100010000000111101000000010111100010000000000000
00010000011101111001101111111011111110001111100001101101011011010000001000000000000000111100001111010000111110000000011100100101
10111010101110011111100011011000010101101111101110011000100111100011110110111000110101000001000110101101101000001111100100011100
01100001000000110001001100111000001111110010111101111000011010010101000001100000000110110001101101000001010010011111100111011001
00001100001000101111011011110110010011011100111100111110011111101110010100000000111110001111010000000111000001111011000010110000
00001000101010001000110010001100100011001000111010011110100111100100010010001100101010000000011100110111101101111011110000110111
00010101000000011011110000010110000000000000010011000010110000100010001100110111000101000101001000000000000001000000000000111110
11111111110111110100100001010001111000001100000000101111001101110110111011000111011011000000010001100000000000000010010010110100
11000010000001000100001000100000000000000100000000111100000000001101110000001110000011000100000001010001011010011001111000101110
11110110011111110011101100111010010001011110111100111011101100010100000000000000000001111011011011100111111101100000001100000100
11111001111001110010000000100000010001101110010001000100001000000100011001000111000111001001000010101110010011100100110001001100
01000111100000000001000100011001001111110111100111101000001010001000100110011000000100110000001101111001010110011110000011100000
00000000101000000010000000100010100001101000001110000000100000010000000000000000100001101000001110000000000001011000000000000010
00001110101111000000000100010101000001001010101000000001100001010100010000000110100000001000101010101000000010100010100010000000
11111111001110110000110100011111000000010011000100010001100110010011011000000011101110001010000001000001010100011011000010111000
10000001101010001010000011101110100001101100001010000101100001101100011010110000100000101110010110000001100000011000000010000101
00100000110001110000100000000001001000011010101000000100001000001010000000010000000101100010000000100000001100000000010000100000
01000111001110010111110101110101000001110000001110111000001110010011111100000111101110001111100001001001010010011011100011010001
10011010100010000000001100010001000111110011111100111001001100011000110010001110000101010000000000111000001010000001110000011100
00000001000000011011100011111100110010001110001001110111111100110000000100001000000001111010000111110010111110100010011100000111
00001111111010001110000011100001010110010100101101000100000111101100000011100101111110000111010000000101000001111101111011011110
00010000000001000100011001000110100010001000011011010010111100100001110000001000111011000100010000110111001100101110001111100101
00000111000001110110101001101100000000000001001000111000000110000010011100000111011010010111100000000111000001011100000101000000
00111111000011111010000010011010000001011010000000000100000000010000101100010011000000010000010011101000110000000000011010111101
00011000001110100001001000000000001000100011100001000000000110101000000000100100000100010011011100100000000010101101110110111101
00000001000011011110001010100000100000000010000010100101101001000000000001000000100001101001001011000000101010000010100010010000
10001000100010011101110101111101101100000000000000001001100110011001110010110000101010000011010000101000000001010000100100011001
11110001011101110111101101001011011000110110000111100000011000010100000100000011001100010100000101000111010011011101100011011000
11011111110111001110100010110100101000001000000010100111101111111100111011001110000001101110001010100001101000101010011010100100
10111000101110000010100100111001001010100011100000000111000111011000100010100100100100000000011100101001000111010000011010000110
11111000111110100000000100000001011000010110011001000101000000010101110001000111000010001110000001000110010001000000110001000101
00111011111110110111110101101111100111111111111100110111111110101011000111100001001100011110010101111011011101111111011000110101
10111010000110011001001110000011001111100110101110011001101110010011101100111010110101111011000011111000111110001011100011111000
11110100111111000100100101000001001001100011110000000101000110111001010000100111010001110000001000100001000110010010111000100101
11000001010001000011010000110101000000100000011000111000001010100000000000000111000111000010100000100000001000001010010100010100
10001110000110000110010001000111000000000010000000011100100111001011110000111101100111011111000001111001011101010010010110110000
10101110101111001111100100111001011111100011101010101001101110010011011100100111111010001110001011101011010011111110000010100001
11111110111101111011111001001101111111100110111111101101101011101001010101010011111110111011110000101101101011111011000001101001
01011111010011110010101111111010110011111101010111110110011011111010111011110111111010001011011011110011010111110001010011110100
11110111011111110010001010111100111001111110000100110010001001010001011000000111000000010010000101100000111000000000000000000000
01000100000000111111000111111001010111111101011100111111011110000000000100000001100110001001000011001001110110010001100000011000
01000001001110000000011100000111001001100000100001001000011010001010100000111000000001111011001111111000111110101001100001101000
00100000000000000000000100000001010110100000000010010101000000011000001000000110100001111000011100001110000000000000101010011010
11100110111000001100110000010000111111101011010100001110000001100100111011111000010010000000110100010100000111100110000100100001
01000000000000000000011011000100000000100101001010010010010000000100001000100100010011010010010100000001100111000010000100000100
00000111000001110001000010011000111001100100010000001010000001000000011000000111000000000001100000000000001000000001110000001110
10011100101010000100000000100000000110000011100010101000101100000001101010011000000100001100100101111000000000010011101000111000
10010000110010000000100000000001101000101100000011000010000010110000010010000110000011010110001010000010010000011110011110001001
00000100000000011110010001001010110101110100010001010100001100000101000100100101110010000110010000000010100000011010000001000001
00110001000011110000001000000100010110110101000101000000010000000001001110111001000001110000111000011001000010000101111001111000
01000110011110000100001100000011000010010000101111111111100110001111000100000111001101101110000001111011011100010010011011100000
11001110111111101000011010101000111000011100001101000011110101010100011000000111000000101110010011000101110010100010100010000110
00001000000000011001100110101000001101100000010000110001000000110000100010001000110110010000100100000100000000000000000100011011
00111110000001100111110001111001000011100000000011100010001000110001100000011000111111000111100000001110000001111110010111001111
10000110100000001111100111111001010001100100000010111011101010100000011010101011111111100101100000100101001011011111111011111110
00000111000000010010011010110110100011001000101000001110101001100110001101001001000001101000010011000100111001100010011100000100
01100011010001011111100100000000000001010010000000010000010110100000000000110110000010100000101000000000011110001100000000000000
00111000000000010000100100011001001111100001101001111001010100010001101110011000010000110001101111111010111110000101111101011001
01000000000010110011000100101011000110000011100000000000100100000000001000110111101001100011100101001000001000000011010010000000
00000001000000110001000100000001010000010000011100010110001100100000100100000000101000000101000101000110011101100000000000000011
10000000100011001100111011001010100000001000010010011011100111110000010010001100100000000000011100000101100001111000010110000001
01110110011110000011100100101101011000100110100010111000101110000011101000000111000011011111100011101000111110100001111011010000
10100001000001110100010001011110010100000100110000000101000000010011000110111000011110000100111100001100001110000100111101001011
10000000000000010001100100000011001111100011100001100001000000000011000000000010101000010010101101111110111110000001011000100100
10000110001001111111100111111001100010000000000100000011100111111011110110111101111100001101000100000101000001010010000100000001
01110000000001110101101001011000010111100111111100111000000111010000001100000011011110100111110001000111010010110111101001111000
01000110000001010000000111010001000010110011100100011010000010000000000111001000010000000101001110100001101000000001000000011000
00111010111101001100100101010000100111110111111101100011001101010001110001101110110111110111011101010010110111111010011010111010
00010001000000110110000011110100100011101000111011100000111100000000010101001000110001110100010100100110101010100110010101100011
01000101111110000000011000000111010111111111111101100001010001100100010101000000100001010000011011111011111110100000000101011011
10111111111111100110000010100000100000111000000010010010001101001101110000011111000001101011100010100000101000001001110111000110
00111100100110001100011011101110001100010000000001000011010000000001010100100101010101000101000010000010110010010100100010000010
01010000000000001100001011000111110000000110101011010000010100110000000001000010011101011001001101000000010001010100101001000000
00000100010000011001010000111100000000001001010000101000110110100000011011010010010011100111101010000100110000000001000000100010
11111111111110100011000000100000000001111000011110111000101100000111100001010111101111011011100000000010101100101001111010111000
00000100001100000000000000000110001100000011001000000100000001000100100010101000000010000000000100010100100100001000000000000001
01001001000000111111011001100100010000011110001001011000011000000000000000000010010010001100110011101010010000100110100010001000
01000110011101100010000000001011010001110000001010100011101111000010000000001011101000011000100011010011011100110010001000100000
11110001011100110001110100000101111010000011111000000110000010000100100001000110001010000011100101000010010111100000011011000011
00001111111111101101101100110110011011100100111011010111011111101011111111111111110111011111100110000111010111111111011111011111
00100001000001010000100111001001111000111111000001111001010001111100000111000001000100110101101111110001110000010001110101011101
00100000000000110010111100001011000000000000000000010100010000001000000110100011011000010101000000100101001000010100010100011100
11001000010000010100000000010110101111011011110100000101000000011111011111111111101110000000111100001000010111100000000000000000
10011000000100001011100010101000000000000000000000101000101110000011010010010000101010000010100100000000000000001010000110100100
01000100000110000000000000111110110000110100010011100100010100101001001000000010000110001111001010001100000000010110010101100000
10111111110011101011111010111110101110011101010010100011111100011011101101011111100111110111110001001111010111111111011101010101
11010001010111011000000110010100110000010100000000000100101100000100011000000101000000000000101001000110000000001000110011000010
01001110000000010001001101011001000111000000101100001110001010100101100101011000010100110001011111111000011110010101001100011111
00000001100001111010100010101010110000001110000000110111110100110000010000000011000001111110001011100100111110000010011100000111
11111100001100110101100001001000000001110100111101001000000100000101001101000111011110000110100001000101010011011101100011011000
10001100110010101001111000010100100010001010011010001110000110100100011110001000110010100000111100000111100001111010001100000101
00000110110001101111001011110000110000010000010100110000001110001000011110000111111100000111000010000111000000111111100011111000
00011010000001110001000010111000000111111001101101001010010101000001101101011000000100010001011111011111111100000001101000011010
10001000110010001100100100000001001100000011000010010111100011111000011010000111010000001000111000000001000100000000111100000111
00100110000010111010001011010010100000001000010001000100100001000001000000000110101100101111011000000100000000000000111000101000
00000010000101110000010110101000111000011110100100001000000000000001001100000001000000110000001011100010111100000000110000000000
00001000010000011000110010100000001000110000110010010010100100000000000001000010011100111110100000110001000010000110110011011010
01010100110010011101011101101111111011101011101111000001110101001110101110011111100011001111110010011111110111101010110000101111
00001000001011100100001010000000101111101010010010100001001010010101001000101011010010000011001101100000010100000100110010010011
11110000011101110000100000001101111110000111100100000111000010110111011001000110000010000011100101000010010110100000001000000111
11010000001000010000000000000000000011000101110001001000001000000011100010111011000000010000000101000000010010001011100010011000
00000111000001111111100010101000100000101100010000100101010001010100011101000111001001000010100011000000110000000000010100001111
00010111110011101111000101100011100010010000000100010001101100000100011100000111101100001111000000000011000000111011001010111010
10111110111001111011111011111011010111101111111111010010001011011111111111000110011011101111100111100111001001111010100110000111
01000010001000110011000101011001000111111111101111001011111110010010000100000000100000010101011101011101011110011010000100100001
00001000101000000101000101010001111110000101000100000001000110011011100010111000011000010000100101001001011110010001111100011011
10110101101110000000001000000000100111101001101010000000100001011000110010101000100000100000001110011110100010001000000000011110
00000001000000000111100001110001010001100000010001001010000111000000110000001000111110000111110000000010010001100101000101100111
00011010000110010000011100001001001111100001111001001000010110000011101000011111000001110101000011111010011110110101110111011000
10000001110010001110011011100000100000111000011010010010101101101100110011001000111000001001111010000111100001101101100010010110
00001100100010001010100010011000101000100000000000001100001010001010000000001000000000000000000000100001000000000010000000101001
10001000110001000000010100001000001000000010010010001000000110010000011110000111000001101000001000000001000000000001010000100000
01000100000001110111100101111001000001110000001100101000001010010000000101000001011110010111100100000011000000011111100111011000
00100010011000000010000100101000010111000110001001101110001010010000111000010001100000010010000001110000001011100000010000100000
01110001111110000000110010010010100001101000011000100000000110101111100001111110000000001010000010110011101011101010000011000000
10001010101000010001010100110000100101000100001001000110000101000000010001000100011000000000111010110110001110011100000000100010
00010111000000010010010011000100100010001011100010100110101100100111010101010001101001100000011111110110111100111010001110100101
11000001010000110011101100111111010001100101110101101001000010010100000000000001101110011011101101000100010111000111100111101001
00000001001011111000001110110011000010100000000110000101000000000000101101000101100000100000000010000000100000101010110110001010
00000010010000010011100000101000111010001100100000010101010110000001101000011000000000011001100011011010111110000001111100011110
01000011000110010001100100011001001111010111100111101000010110011011100000011000000110110000010101011001011110010100011011100010
11111010010100110011110100010101011110000001101000000101000011000101101001101110001101001011010001000100001101000001011011000111
00000000000000111111110011111000110101111111011101100011011100000000011100000001011010011111100001001101110011000010100101010101
11000100101000000110000100110000001010000011001111000101010000001101011100000101001001011100110100110100000010001101110000000000
00000000001000001000000101110001011100101101100000010000010100010000000000000000000110011011100001010000011100000010100100011000
11000000010000000010000000100101101000000010000100110110101011010100010111100100001010000001100000010110000001010010000010100110
11100000111101100000000100000001001000010100011001000101010110010100100001000010000001011111000001100110011011000110011001100001
01000001001000110000100100111000000011100101100100001000010110010000000001100000001010010011101111001000110010000010000101001000
10001010100000001110101011011010100001101100000011000111011001011100011111001111000001101101011010100001110000001001000010011111
10000000101010001110111011101100000001111100011001001001110000111000010000000001010001001110000011000010110000101010000000000000
00000100001010011110011011010100110001100001000011010010101110001000100001001111010000000100110000001001110010000000000000000001
01001010011010001100001111000001001000000100101000000001100000100000001001100111000110111010000000010110010100000010000100010001
00000000000110000110000000000000101100001011000100000000101000101000000011001000110010100000011100000000100000001110000000000000
11110001001000110011100100011000010001101010110011011110000110000100000000000001000100001001100001000100010011000001000100001010
11111011110111100011101100011111111010001011001011110101101001111111111101101110011001011010011111100110011101110011101111101110
00001101100000001010010010100000100100011001000110000110100001101100111111001000111100000000011110000111100001011101000010000111
00000000000001111011101111101100111110001010101010111111111101111010000110111000111001111101011111111110111101100011011100100111
