001001000001100001000000000010111000100100000001100001000010100000000000000110000010001010000000001000000100000000000100000101000000000010000100000001001000000000011011011000000010
000000000000100010110000010110010000001000110010000100000101001010100000010001000000000000000000000001110100000001001000000010001000010000111000011000000000101010010010000110000110
001100001010011001010000000001000001001000100000000001010100000101000010001000000000010100010010010001000000010100000110000010001000110000001000010000010001001001000000000001010110
001000000000010000000010011000100010100100000010000001010000000000100010000000000100000100001000101000000000011000000100010100000000101000000011000100000000000001001000000011000000
000000101000101010100000010110110100001000000010110000001001001001000101100001000000000001010010000011000001000010000011000000101000011000000000010000100000001001000100100001000001
010000000010010000011100000000011010000000000000000110100000010100000010000011000010000100010010010001000011100100000100000000000000010000110000000000001100000010000001100100000101
101100010011100010000000100000001010001000100000000000010010000100000000101000000010100010001000110100100000010000010010000100010011100000000000000001010000000111100000000000100000
000110010000010100000100000000000100100000010001110001000000001000001000000010100100100000000000000000010110100000100000000000010000010000000100010000000101001100001010000001010000
000111000000000100000000000000011000000001000001000000000010000110001000100011000000001001000010010010000011000000010000100001000000000100000000010000001000000000011010000000010010
000000000100010001000100000010100000000100110001001010000000000000000110010000010010110000000000100100000000010001010000000000000000001100101000000000000000000000011001001100000100
100000001000000010000100010000000000010000000000010110100100010001000100000111100001001001010001001000000001100010011000011010001000100100000000110000100100010000001000110010000111
011001000100010011001000101000000000000000101000101000100100000001000101011000010000101010010011000100101010000100101000100010000100000010101000000010100001010000001100011000000010
000010000101000010000100000000100000101000100000000001001100100001101000110010000000001000100000100100000110000100000000000010000100100000000100010000100000100011000000000000000100
001000000010000000000000001000010000000100000000000000001001011010000001000100001000000100010110000101000100011000001000000110000010000000000000001100001000000000000000100000000100
001100001010001001100000000010000000110010100000001100100000000100000100010001100010101010010000000101000001000000001000000010000001001100100010010000000001110110001000101000000000
000010001000000001000000001000000000110000000001000000001100001100010000001000101010100001001100000000010001001000100100100000001001000010011010001100001101100000000001000001000000
001000100110100000000100000001000100000110100000100011110010000000001000011001000001001010001000000100000110010001000000000000000010001100000101000010011000000010010000000001000100
000101000011010000100001001000000001000010000000000001010110101010000100010000100110000000001000000000001000100110000000011001000001000000010001001000000010001000000000000100010000
010011000001010110011000000001000010011000001001000001001010010010000000001100000010000011000010000000001000000000000001100011000000111001010001000100010000110010000000100000100000
000101000001101100101000000000011000000000000000101001000000000000101000001010100001010000000000100000000010000000100000000011000100001101100011001000001100000000100000100001000000
000000000000010010000010000101010100101001001000001000000110101000000000001000100101000000000000001100011000010010000100100000010001010000000000001100010001001110001100001000000010
100000001010001101001010100110001101001110101000000010000000010001100000000001100010000010100000000010000100100100000001001000000110000100001100000100000100000010101100010010000001
100100110101010001000001101010000010000010000100000000000000010010000000001000000000101001011000000000010100010000000100100000000001100101000000000000000111000010000001000000110010
010000001000000100000011000100000100100001010000000000000000001010010000000100000000000100100000000000110101010000000010000110010000011100000000000100000001101101101100000010000100
011010001000100101100011000100100010100000010000011101001100001011000001100000100101001010010010000000010100010100001000000100000000001000010001100000000000000000000100110010000010
000000010000000011000000010001100010000000100001110000001000100111001010100001000001101000100110001101000101100000010000111000000000000010010000010000110001100010000001010100001100
010100000011000101100101010010000100000001000100001000100000001000000100010000100010100010001100001000000100010001100000100000000010001000000100100000001000000011000010001000000010
000000001011000001001110001000000000110000000001110010100001010000010100010010000000100001100010001000100100010101000011010010100100000001100100000101000000100000000000110010000001
000100000001000000000000001100110000001000100000010000001000010110001000011000000000000000000100001001010011100000001000000001000010100000000000001000011000010000000000010000000000
001000110010010010100000000000100000000001001000000000000000110000000000000010000001000010010000000000100100100000000001000011100001001000000001000001000100000000001010100000010000
000001000000110001000000010100000000000001000000000010010000000000000000011010000001000000000101000000000010010100001000000000101001100001000000000000000001000000100000000000010000
100000010000000000100000100000000110000000000010010001000101010010101011100000001000010110000010001000100001100100011100000011000000000000110000000000000011100000001000010000000010
000000000010000000110011000110010010000101000100000000100001001001010000001000000000010001000000000000110010001010010010001100001011000000110000000000001000000100001100100000010000
001000001010000000000000000000100000011110000010010001000100001010001100001101001000100000000001000100000011000000100001000000001010010010001000000000010000001001010100000001000000
000001010000010110000010010000000111100111100001001000000100000000110000110000010001100000011000100001000100010011100000000000010001101001000000010100000110001011100000101010010000
000000001000100010000011000000000011000101001000000100000000000010000110000001100010000000010010100000000000000100000000001001001001000110000011000010000000000101000101000100100000
100001000100100000111000011000100100100100000010000011001001001100000110010100100001100010000101001010010000100100010101011000000101000010101000111000000000000101000101000000000010
000000101100011010000100000101000101000111110000100001010000000000000000000011010011000000010000010000000100000011001000010000001000101010000110000100010001100000010000000000100100
101000000001111000000000000000000110100111101000000000000010011000001000000110100000000010001000001001000100000001000000001010000000110000000000000100000001000011100000000000000001
100000000000110100100100000010000100000000100001001100001010001000000000001000010000000100010000001000011000010001000100010000000000011001101100000110011000001010011000001100001000
001100001000100110000100000010000000100001000100000100101100001000000000001000010010000010000000001000000110000000000010100000001000001010000100000110101000000100110000100000001100
000100000110000000100100000010001100100011100000001010000010010100100000110000000000100110010100100001000100000100010000000100000010010000100101000000000010001001100000001000100110
000100000000000000010000000000000000000101000000000100000000000100000000000001100100100101001000000000001001100000010010100000011110000000000100010000001000000011010000100000010000
000010111000010000100000000100100001000001001000000100001100010000001001010010000000101000010000010010000000000000001010000100011011001000101000000100000011000101000100101000110100
001010000101100100001000000001100000010010000100000001001000000000000000000110100011000010000000001000010100000010000000000010010100010100001000010001000100010001000100010000000000
000011000000000001000111000010000000000000000001010000000010000000000000000000000000000000010010000101001110001000000001000010101000000010100000010001001000000000000010000000000010
000000011000000100011000010100001000010010000100000000110100100110100010000001000100000011100011000001100110100011000001010010001000100000001001000100000011010000001011000000101001
011000001100000100000000100000000101000000010000000000001000001100000101010000010010000000001010000101001000100010000001010000001000010100000100010000000001101000001001100001011000
010000000001000000000000000000000011000011001100000010000000001010000000001000010100000001010000000000110000010010000000010000011000000100100100000010000011000110010101001100000010
000101000000001001011000100001001100000000000011100111001000000010000011000100100110010001000010000000110000000000010001000110000000000101100000100000001001000000000110100110000010
000001001010001001100100000001010000110000100000100001110100010100000010100100000100000000010000100000000011011000000100011001000000000011001000010001010001000000000000100000100010
000000001000000000000000000000000010000000000010001000000001000010000000000010101000000000000010010000000000011000000010100000010000000001000000010000000000000010001010001000100000
100000001000000010101100000000001100010010000000110010000010000100010101100100010000000001100000001000100001010000000001010010000010000010001100000100000110001000001001010000000010
010100010010000000000000000000001100001100001001000100000100000100100000001001000000000000000000011000001000000110000000001000100000000011000000011100100011100010100000100100000000
110000000101011001000100000000000001001000100011000110000110000000000110010000000010001000000000000100000000000010000000000000010000001100100100000000000000000010010001001000101000
011000000010000100000001000011000001101010011100000110000000110000000001000100010000010000000000000000011000000000100000100100000010100100000000000011000011001000110001001100000010
000000100000010000000100000001000010000011000000001011000000000000000000000001001000010000010000000000000010000001010000001001010000101100010000000000000010000010000000000000000000
001100000000011000000000010000000000100000001000000000010010010101010000000100010000001000001001000000000001110000100000100010000000010000000000010000010001000000101000000000010000
000000110100000010000000010100110000010100001010000000000010001000000011000000011000010000000001000001100010001010100000000001000000001100000000000100101000010000000000000000001000
000000100001010000000100001000000100010001100000000000000110000100010100000001000000100000001000000001010000000000000000000001000000110100000010001000010100100000010000010000001000
000001000100010001101000101001011000000000000011010100001001101101001001100110010100000010001010001010101001000100101110011011000000001010101000000001010000000110000111110010001010
000011100100000110100000011000001000000001000100000010010010001000000000000000100000000100000100000011000010000100000010000001000000001000000000011000011100000000010000000110100000
000001000100100001101000010000000000001000010000000110100100000000001010000000001000010010100010001000100001101000000100000110000111000001000010010000000000010000110000000010110000
000000001100001010110100010000011000010011000001000100100000000000100100010000010000100000000000000100000000000000000000000000001010000000010000100000010000010010110001000001010000
100000000101000000000000000000000011000000010000000010001000000100010000000000100110000001010000100000000000100110000100000100001000000000010001010100000001000000000000000100001000
000010101000001000100000000000000110000000000010001000000000000001000000000000100001000000000000100010000000000001000100000010010000100000000000000010000101000001000110000000000000
000110000000010100000000010000001001010000001000000010000000001000000000000100010000000000000100000000001000010001010000010000000001000100000000000000010000000000100000000000100000
001000000010101100000100000000100001001011000100001000000000100010001010000010100101000000000000000101001000010001000010111000011001000100100010000010000001000010000010000010000010
100000100001100010001001010000001010000010001111000000010000000010000000011100000000010101100001000000000100010000010010100000000101000010010000000010000000001001100101000000010000
100000000000000110000000000010111000000001000110000001001100100110001000000000011100000000110010000010011000000000000000100000000010000010001010000010001010000000000110000010001100
001010010000000010000010000000000101000100000000010000100000000000000011000000100001010100000010000010000000010010010100011010000000000100000010010000000010000000001100000000010001
000010010000010010000100010000010000100010100010000101000000101000010101000001011000000000100100001000000010100100010010000101010001001001100010010000010000000001101000001000000100
000110001001111100000000001000010000000001000001000000100000001000101001001001010000010001000000110010011010000000100100000100010001010101000000001000000100001001000000000000000000
010010100010000001010100000100100000110010001000010000000000100101010001000101000000010101001000001000110001000000100100010000001000000001010100000000000000100010000100010110000000
000000001000000010000011000100011000000000011010000001000100010000000010001100100100000001100101000010001001001000001000100001001000100110000001000010000000100100001100000010000000
000000000000000100000000000000000000010000011000010001001110000010001010001000010100100000000000010100000000010110110010000010100100000010010001000000000000000000001000011010000100
000101000101000011110000000001010000000000010000110011101000000011000001000000001000000010001000001001001000100000000000000010001000000001110000010110010000100000110000000010100100
000011010100010001100010001000000111000000100100110001001000100001101010001001010100110100000010110000100101000100100010000010000100001110000000000000101100010000010110011000000010
000000010000111100100100100000000001010010001010101010001000101100000001000000100000000000000100010001100000000011000010000001010000001000000000000000000000000010101010001110001000
000000000001111000101100000000110000010100000001110000010100110110000100100100000000010000001000010000111001000000000001000000000000010001000001100000100000010100100000110000000110
101000100001000001100000100000010000000000000000110000100010001000000000000001000110000010100100000000001000100000000100101001000000100000100100010001100001100000000000100000010101
000010000000000001010010000000001100000000000011000001011001011001000001000001000010001000100001000000000110000001001000000000000000000101100000010000010000000000000111000110000000
010000010000100111001011000100100000000000110000100001010100000100000011000000000000000000010110000000010000010000010001001010000001000111000001000000110100100000100001100011000010
000010100000111010010000001000000000110000011001000100000111010100111010010000100010010000010010110001000000000000001000001111000000010001010000010000000001100000010101000000000110
011100000100100010000000000000000011100000101000000000100010001000001000011000010001000010000100000000100000010000100000010100000000001110000010000000000110001000100000010000100000
010000001000000010011001100000001100000000000011000001011001000001101011000000100001011000100001000010000000010101001100010000100000000000001000100100000010000000100010010001001001
000101000000000000110000000000000000010000000010000001000000010001000000000000000100000001010000000000100010000000000000000000000000000000110000000000000000010000000001110001000010
000100100001100010000000000110001100000000000011000000000010100000001000001000001010000000100000000000100100000000000000010010000001000100000000000100100110000000100100000100000000
000010110000100010100000001000000100001001000000101000000001000010000001001010000100000001010010000001000100000110000001000011010001010000100011010100010000100010000010000000000101
000010000101100100001011010011010010000001100000001000100000001000001000000010100001000000000000110010000010000000000011000110000001101010000011010000000001000100000000001000000000
001000000010100000000100000000000010000001000000001000000000000010101010010001001000000001000010000000001000000000000000100000000001000000000001010100000000000010000000000000000000
001000010001000010000010000010100000000100101010000010001110100000000100000000001100110100100000000001000010110000000000101001010001100001100010000000110000001000000110001101000110
000001100101011101110000100000000000111000111100000000000111000001100010001000000000101000000011000000010100000000101000000000100100001101100001000000010000010000000011000000000011
000000000101000000000100000010000100000010000000000001010000000001001000011000000010000000000000000000000100000000000010000000100111001000001100000000001000001001000000000100010001
010000000010000000000000010010001000010000100000001000000100000010010000000000010000000000000001000000000000010011101000000100000000101100000001000011000011010001000000000000000000
000000100000000001000100010000000011000000001000100100000100001000000001101000000000011000010000010000000001101000010000000000100100000110000010100001100010010000000000010010000000
000000000100010111000110000000011110000001010100000010000110010000010001000100000011001000100000010000001000000001001001100000000000000110101110000000001011100010001000000010000000
010000000001000000001001001110001000000001000100011001000000000000100000000100000000000000001001001010000100000000000010000000000000110100101110000001000000011000000000010000010001
001000000000000001111010000001000101000000100000010000000000000010000100101100001000010000000100011000000000000100010001011000001000000001111000000000010000000010010000011000010000
000001010001000000010001010000000001000000000000000001010000001000000000001100000000100000000000010000001000010000000010001001000011000000100001001000000010000010000001000000010000
100000001001000001000100001000000100100001100001000000101001000110010110010010000010110100001000000101101000110010000010101000001110000010100010001001001000010000000000000000100001
000001000010010001000000101010100000010001001000000000000001000001000011000000000000000010100000100001000010001000000010000010100000101001100000110100010000111010010100100000000101
001010000010000001100001000010000101000000011010001001010000000001000001000000001000001001100001000001100000010000001000000000000001000011010001010000010000100000010100000000000001
010101000010010000000110000000010100110000000000110010001001100010000000101110000000110000100100011000000010100001000000100000000110000000000010010100000000100000000000110010000001
101010000000010000100000000010000000001000000000000100000000000000000000100001100000100000000100000000000000000001000000000010000000100001000000001000000100001010000100000100000001
000100010111000001001000000000100110010010000101000100001000000000010000000110000101000000000000110001000101000011000000000000010010000000001000000001010001000010100000001000000010
000000000000000000100000110000100000000000000100000000010010000001101000001100010000010000001001000000000000101010000000001000001000100000100000000000000000001001100001000001000000
001000100000010011000001000000010000100010000110000011001000000001000000000000001000000000000000100000001000011000000100100000001000010010000001010000101000000101000011000011000000
000110010000000001000000000010010000010001000001000001000010001000101000000000001000000000001000011000011001000000000000001001010000000010000000010000001000000000100001000010000000
000010010001000000000010000001000101001000100000000000000000000001000100000000100000100001100000000000101000000100010000001000000010100000100000000010001000001010000001000001000001
010000000000010100000000000001000011001000101000000000000010000010000000001000000000000001000000000000011000000000000001000000000000110101000100000010000011001111000000000000000000
110000001100000100000100100000001000100000011000001001000000000000000000000000100000000000000000001000010001000000100000011001000110000110010110010000101010100000001000000000010000
000000001110000010000010000000000000011010001100101110000000000001001000010000100100001010000001001000010000010000000101010100100001000000010010000000000000010010000001001000000000
000000100000100000000010000000000100000110000100000001010010000000001010000001000110000001000000001000100010000000000000011000000001101000000011000000010000000001110000000000100000
001000110001010000010010000010000010000100010011000010000001001011101000011000000000100001010100000101100000100001000110100100010000010001100000000000010010000000100100000000000001
010000000011000001000010010010100000000000001000111001010000011100000001000000100000010010001001000000100001000000100100100101000010010001000010110010110000000010000000100000000000
010010001001010010100110000100000111001010001000000010000100011100001000101000000000100010011000001001100100000000010100100101001001000001000101000010001000001110000111001010000100
000000000000010001100000000100000011100100001000100010100000000010101000010010000100001000000000010010010111000000000000000000101000010001000010001000000010000100001000100010000000
010100000000001100000000001010000000010100100000000000011100000000100101000000000000000101001000101000001000010100000000101010000100000110001000100000000000100010010010000100000000
000010000100010100011100000000000110010000000000100000101001000010000011000000100110001000001010001001100100000010101000100110000000000100101010100010101000001000011001000100100001
001010000000001000010100000010000100000000101101000001000001000110000010100000101100000001001000001000100010101000000001000000000000110001011000000100001100100000010100000000000000
101000100000010000010000100010010000011001001010100000000100000000100010100000100100010010000010110000001000111000010000000001011000010100010000010011000000110000001011010000000100
011000001010000000100001001001000100100000000001111110001100000110001000000010010000101000100001010000000101010000100000010100000111000100100001001001000001100000000000111100110000
100000100001100100010100000000010000010010000000000100001100000001001001000000100000000000000000101001001000110010010000000000000100010000010010110010010000010011000000000000001010
010000000000010110000100100000100000001000010100001100000000000000001001000000000000010000000001000100000010010000100000011000100000001100000110000100100000000000010000001010101000
010001000011001000000010110100100000011100000110001000110000010011010011000000000000010101001010000000100000001000010000100101001010001000000000010000000010000100000100000010000000
000001010100100010001010000000001100101000001100010000100001001100000001001000010000000010000101001001000000010001000000000001100100001000000110000001000011000010001010000001001001
001000110000100100000000010000001010000000001000000000101000001000000000000000001000100010000010000000000100000100100000010100000000001100000000100010111000010000000011000000011000
110000010000001010000000000010010000100010100010000100000000100001000110000000011001001010100000001000100000000100010101010000011000010000000010000011010000000100100100000000100010
010000000000000010000000100000100000100000011000100100000010000101101000101000000100010000000010010000010001000000101100011000000101000010000000011000100000001000000001000000000001
000000010001000000010011000010000000000000000000010000010000000000001000010000000000000000000000001000000001100010100010000000010001000000010010000000001000000000000000000001010000
001000000001000000000001010010001100101001000000000001010000000000000000011000001000100100001001000100100100000000101000000000000011000000000001001010001001000001000000000000000010
000100100000100001100100000110010001001011001001100100001000000000010001000000000000010000001010110010011100100110010001000000100000010100111000010101011000010000001000100100001100
000010000011010000001000010011101000110000100100011101001000100010010101010010100001010110000001110010000111001001000000000100000011000010000000001011101000001001000000001000001000
000001000001000100001000100100010000111000010001110000001011001011000100001000001000000010000010000001010000000000000011000001000011100001000000100100000000010100001001100000010101
110010001000000010000001000100110000100000000110000000000010100000001000000000100000000000000000100000000000000100000000100100000100001011000001010000000000000000000010000100000000
101001000001000110011101000000100000110000100001100010000010101001110001000001100100001100000001010010000001011000110100001110010000010001110101000000000110110001001011110111000010
000000000001110000000001010111000101100000001010001010000000000000000000000000110001000000010000010000000001010011000000000000000001110000010001000000000000110001000011001000000000
100000001000000000100000010000001000000000100000100001000100001000101001010000100000000001001001000000001001001010010000000000001000000000010000001000011000000000010000000000000000
010000100000000100100000000001010100000000000000000001000001000011001011010011000100011001000011001000001001000100010100010000000000000000010000001000000000000000000000110000000001
001001001001010100000001000011010100100010100000000000000010111000010000010000000000000000000000000001001001010000010001100101011001010000000001000000001000100010000000001000100100
001100000101100000000000000000000110101001100100000001000010010100000100100000100010100100000100000000100100100000000100001010000010100000000000000010010000001011000000001000000010
000010001000000010100010100001001010000001010000101000000010010000000100000010100001100000010000000100001100100010001001010100000110000011100100000000000000000000001000000000000000
000010001111000001000000010000010110000100110000000000001000011011000101001110001000000101000010010011010001000000001000000001011110000011000000110000010000000110101100010000011000
000000000010100010000000000100001001000100101000000001000010010000100001000001011000000000010000101000001000000000100001001000100010000100000000000101101100100000101100000001001100
010000000101011000000000010001001000000001100100000001101001001010000000000100000001000110010000000000000110000000000010000111000010100000010100000000001000000010100000000000001000
000000101100101001100001000000000000001110011100000000100000000010001000010000000000000010000010001000010001000100000001010000100000101010110000000001000000100010000100000100100000
011000000001100100000000010001000000010000010000000001100010100100000000000000001000000000000000000100000000000110100001101100001000001000000000100001000011000010000000000000100000
000000001000000000000001001000001001100000000010100100000100001100000000001000010100000001000100000000010100010100000100000010001100000001000001000010000001100000000010100100000100
100000100000010000000000001000010000000001100001000000100000001001000000000001100000000000000001010001001010000100000000000010010000010001000001000000001000000010100000000000000100
000100010001100000000001000000000000101000101110010000101111000000110001101010000000000000000000000100000000100100010000101000110100001100010000000000000000010000111000010000100110
100000000000100001000001000010001100000010010000010011000010001000000000000001011000000000100000010000000011011000000010100000000111000001000000010010100100000000100000010010000011
000011000010010011000110000000000010000000100010100000110000100001100000011000000000000001001000100000011001000001001000000111010011000000000010000010000100000000000001000000010100
000001010010011100100101000000010000100001000001100010000000001010010101000000100001000000000000000001000000100001010000000001010001001010000000010000010000000000100001000001000000
000001000001100100000010100001100000010000001110100100001100000000000011010100100000000001001010100001000000000000010001000010000000100001010000100001010000010100000010000010010000
010001001000001100000000000000000010001000010110001000000110010000000000100000000000001000010001000110000000001000001000010010000000010000000001000000000001010001000100001000010000
010000000000010000100100100000000000100001000000000000000010000100011000001000010010001001000100000010000001000110000000100000001000000011000000100100000001000001000000000000000000
100110001100000011001010100101110001000000000001110001011000001010001010110110000010101000000010001000001100100010000110000010000100100110001010000101000101010000000001100010010000
000101010010100110100101000001100001010000110000100001100000100001010100100100001000000010100001100001000000100001000100000000110001001010000110000110101000010000110001110010000000
000100001100000010010010010100000010010010000000000110100100000010101010100000100000010010100000001000010110101000000001000011100000000000000010010001010001010000000010000101001100
001000001010000010000000001000000000100001100011010000011010010000001001100001000100010000100000011000000010010011010010000000100111000010000100010000000000100100011000110000000111
010000100000000001100000101000000100000001000010010000101000011000011010000100000100000000010000000000001010100000000100000000100010000011001000000010010100000000100010010000000010
100001010110100000000110000000001010000001100000110001001000001011001000011000000000001001100000000100000001000100000100100001010010010001000000100010001000011000000000100000001000
000010000000100000010101001000001000000000010000100000100000000001000000011000100001100000000010000000001000000000010000000000010000010000010000101000000110000000001001100000110000
000000110000000011000000000100100010000010010000010011101000001110001011000001000000010100001100010011000101100010010100000000100000011001001000001000100000000010100000010011000001
000011000000001100000100000000000101000001010110000100000000001001000000001100000000010100010001000010001100000000110010000110000000100001000110000000100100000010001100000100100000
001000010000000101000000010000010001000001000010000010100000000101000101010001000010010100000001000100100000100000100000001100010001000000000001000010001010000000100000000000100000
001010000100100001100000000000000100001010000000010000000000000010000000000000000100100110100000000100011000011000000000000000000000100011100001011001000000001000000000011000000001
000000010001010000001000000100100110000000100011000000000110001010100001011000000000000000000010010000000011001001001100000000010010000000010100001000000001010000000111001000000100
000001100101111111001001000000001110000010000010111000100000000000000000010110100001000000000000010000001100000000100000000001000000010111000001000000001001100010000010011000100000
000010110000001000011010000100001010000000000100100001000001000000010000010100011011001010000000101010000110100010000010000110000000010011010010000000000111000001100100110001000000
001000000011010000000000000000000001000011000000000100001000000111000100100000000110001000000000000100000100010000000000010001000100100000000000000000001000110010100000001000001000
000010001000000000010110000001010100010000011100001000001000000010000010000100000010001001000010000000010110000100001001001010101000000000010011000000000010010000110110000100100000
101010011001000000010100000000000010010000000000011010000100100000010010000001100010010001100000010000000010100000000001010010000000100000000000010000000001000011000001010000000000
000000100000011000000100000000001000000000001010111000100101100110000010000001001000011100010001000000110000100000010100001000001000100000000000000100100101000001000011010000010001
011001000000010010000001000101000110011010000000010000001001000011000000000100000000000100001010000000011000000000000110011010000001110000100000000100000101010001100001110000000100
010000000000010110000000000010001101001000010000001000000000000110000010000100010000000000000000000000011000010000000100100000010000110100000000000100010010000100010000000000001000
010000011011001000010001000010001010010010101110001100000000101000000000011000010010100000000000001000000000010000010000000000001011101001000101000001000010101010110100001100000010
101000100001010010000000100000100000011000100010100000000000001000100001000100000000001000001100010000001000010000001010101001000001010000100001100001000000111100000001110000100111
000000100001000100000000111000001011100000000010010101000000010000101000110010000100001100010010000100000001100000000100000000001000010000101001100010001001001000000001011100010100
000101010010000001010001100001010100000000011110000111000100001000000000100100001000010001010000000000010000000000010000000100000001000000110011100000101000000000011010000011011000
000100010000010101000100100100001110000001010100000100000110000000001000000110010010000100100000000100001100000000000100000000000000000010000100000100011000001001100000000010001100
001000010010100001000000000001011000100001001101100001000000001001010110010000001000010000000000100000000100001000001000011000110010000100000000000000001110000010001000001001100100
000100010000001000000000000010110000001000001001001000011000000100000101000010000000000001011010000010010000000000100000100011100000001000000000010000010000010000001000010000000000
000000100100000010111000001100011001000000010000010010100100000000110111001000100100001000010010000101000000100100000001000100110010010100011000000110001100010000011000010010101010
001100010000100000100010000100011001000100000000101100001000000000000101001000000110000010000001001000000000010101000010010000010010000000000101000010100010000010000100001000000010
010100100001000000100100010000010010001000000010010100001001000000001000000010000100001000100000001000001001100100000110000100000000010000010010100001100000010000000010110010000001
001000101000000100000001000100000001000101001010001001000100000001000100000010000010101000110000010000000100100101101000001001001001100100000000000100100000100110000100000101000101
000100010010000000000100000100001000000010001010000000001000100000000100000010010001000100100000000010001010000000110000000100010000100000000000000010000010000010010000001000001000
001000000001010001100000001000000000100000000010000100100110001000001000000000011001001000001000011000000010010010100100000100001000100001100001000010000000010000000000100000000000
001000010101000010011000000100100000001001000111000001011001000010000100001000000100010110001010010000110010000101000100000001000100010000101000000100000100001101100011010000110001
000100010100000011010010100001000100000100001100110010100000000001010001001000001100000100000000010101001000000010000010000011000100000001010000010001100000100100001010110010000000
001110000100000010000000010010000001000000000011000000001010001100010000000001000000100001001000001000011000000001000100001100010000000011000000010010001111011001000100000010001000
001111000010010100000001000001000100010000000000100100000001001011100000001001000000000001001100000000100001001010010000000110000011001010000010100100001000010000000000100010000010
000000010000000001001000100100000100000000001000100011011000010000000011000110110010000000000001001000001000001000000000001000001010100000000000000010010010000000000000110100011000
010000000000000011000100000000001100010000000001000000000010000011000000100000000100010001000010000000000010000000010000101000001000000001001110000010000010000000000001110001010001
000110000100000010100001100100000010000001000000100000000000010001000101000000011000000000010001000010000000000100000000100000100110000011000011000000000001000001001000100100010000
000110000000010000010110000000000100001000100010110010001001001110100010001000000000001100100010110000010010001000000110000100010001001010010100000100010000010000110001000010000011
100100001000000011000100011000000101100000100100001000000110000000100000100010010000001001000100100000000100000010010100010010001000000010000000000100000011000011001100000000000010
010110010001000000000001010111110000000100000001000000001100001110100100000100100100110100000011010001100011000011001000011010001000110001000000010010100000001000000100010000000100
010000010001011001000100000000000010001110100100001010000010010000001000000100100000110100001000000100010000010001000011001000010010010100000000000001000010000111100010000010000000
100000000000111110000010000001001000001010100110001100001001100100000100000010010000000010100100010000000010010000000011100100000010011110000010001010001000001010101100001000001100
010000001100001100100100000000000110000010011010001011000100000000100100010010010010000000000100000000001000010000010000000100000000001000000100010000000100000110001000001100100000
100110000010110000000001000110100100001000000100001000000000100000000100000010010001000101000100011000001000010001000010000000000100100000100100000110001000011010010100001000000010
000000010001011001100000100001001000110000000110000000100000100001110010000011000100000010100001010010000000001001000100010100010000101100010110011000000000101001001110000000100010
000001000000001001011000000010000000100001000000000000000010100101010000000010000100000000000000110010010000100000110000000001000010010010010000000000000100000000000010100100000000
001000000011000100000010000001000010000111100000000010000010100000001000000001100000100000001000001101000010010001010001101000001011100100000010000000000001001010010010000010100001
010000010000110010000000001000001001100011001100010000000110000000011000010000000000010000000000000000001010000000000000001000000001001000000010001000001001100011111000010000001100
010100000110000000000100000000000001001001001100000100010000000000001000011000010100001000000001001000001010000100001000100000010001000000000100001000000000001110101000000000010000
100000110000101000101010001010100110000000100001000100000010001000000010100001000110000001000110000010100100000000011010100000100000001001000100000000100011000001010000100110011001
000000001000000000000000000000000000011000000001000100000000000110000000000000100101001010100010000000001000010010000010100000000000000000010000100000000000000000000000001010000100
100100001011010100000010000000000010101010100100000000000001010000000100001000000000000000010000000001001000010001000001100000000010110010000000000010000011001010100100000000001010
000000010101100001101000100000100001000000000011100001001000000000010000000110100001000000000000000000000010000011001000000000010000010000001000010000000000010001001100000000010001
101000100101000001110010001000000000100000000000001000000000100000101000000010010100000000000001000000000010001000100000001000000100000000000010000000101000000000101010001000000010
000010000100000000000010000000010011000001000001001000011100001000001000000110000000100100100000000100001001100000100001001100001010010000000000000000000010000000110100000000011100
000001000000100001000100000011001000011000000000001000010010001000000000000000010001000000000010000000011000011000100000000000001101101000010100011000000001000110000000010000000001
000001000000001000000000010000001011000001110000010001010000001000001000001000000000100000000001000000010000000100000000000001000000001000001000000000001100011000110000000000100000
011000010001000000000010000101000000100110110000001010000010110000011000000100000101110010000001000101000000010001000001010000001001111000000100000000001010000010000000001100000000
000000010000000000011000000001000100110010010000000001100000010010000000000000001000000100010001000001001000100100000000000010110001000000011010000001000010100000110001010011100000
000100000010010000010001100100000001000001001001011100001000000110000001001100011000010010000000010100010100010000100000000000000000010000000001000010000010000100100000011010000101
000100101010011100000000100000010010000000111000000010001000000001010000011000010010110000000000010000000001000100001000000010010011101000000110001000110001000001010000000101000000
000000010000000011000000000001010000000000001000001011100100010000010000010000000000001001010000100100100011000000001000011000110010100100001100000000010000000010000000010001100000
001100010000000000100000001100010000111001000110000000001000001100000000100000000000101001000100000001000100000001100000001010010010000001000000001000000000010000000110000000001000
000010000011000101000000000000010000010100101000110000100010001101000011000100000100000010001000000000100000001010000001000111000100000001100100000100011000011000000000110010010010
000110000010000000000001000000001000000001100000000000000000000100000000000110000000100010000100000000000100000000010010001000000010000000000001000010001000000010000000000000100100
000101000000000001100000100100101001000100001110100000000000000010001001010000000010100000000010111001010001000010001000000001001000010011100000100000000110000100001100100100110000
000000010001000000000000000000100000000100110000101000001110000001011000001011000000110000000000100000000010001000001000000000011001101000000000001000110000001000111000000000000000
100000101000011000000100000100011100000101100010000001000000000000010000001000000001000010010000010000000100010100000001000001000001011100000110000100010011100110010110000001000000
100001000100010010000010000010100100001010000100001010000000100000001000000010000001110100010000000100000110010001000001100010110000000010000001000100001000000001101110001110001101
000000111001001000000011000001110000100000100000001011000100001100100000011000011000010001001000100000000000000100000100001000101000010000010111010001100000000000100000011011000000
000001000000000001111000000000100110001000000011000001000001000000010000100000000000010000000010000000010010000001000000000000001000001001111001010000000010000000000111000100100010
000101010111100001101100100011011000110110010001000110000111011000100100111110000010010010111000100010010100010010011111001001010111001001001000100011101110000111100111000011000110
100000000000010011000000000100010000100001001100000000000010010010001010000010000100000110100100000100010100000000000000000000000000001010000000000000010001100000110000000011001100
110100000000000010001000011010000001100010000000000000000101000000000001110000000000000100001000101011100000100001000001010000011000000000010000100100000010000000000100100100000100
010000000000010100000010100000010000001000000010000011010001100000010000010100000000000010001000000010000010000101001001010000010001000010000110000010010000010001010010000100001001
000100000111100000100000000000011101010010000010000000001000001010000001110000100001000100000100011001001001001000000000010010000101000000000011000000001000001010000100000010100000
000110011000101000000000010000110000011000000010000000000000010100000000010000000000000000011000000100000010001000100000000010100000011000000000010000001000110001010000000000000000
001001000101100000100110000000001100100111000000000010000010000100100100100000000001000000000000110001100000000001100000000001000100010100000101000000110101000000110000000001000100
101000000000001100011000000100001001010010100001010010001001010110110000000001010100001010001100000000000101101000000000101000000000010000101000000000100001000001000001010100100001
100010010001000110000100000010001010000001100110000000000000100100010001100101000000100010100000000001000000000010010101100000010011000000100010100100000010000011000010000000000000
000101100100000011000001000100001000000000000001001010000010000011000100001000100000000010101011000001000001100010000011001001000100000101010000000000100000100000000101010010000001
100100010000010100001100000100010000010000100001010000001000000000000000000000000000001000001100000001000110000000100000001100000010000000000100011000000000000000000110010000000000
100000100000100000000000100001010000100110000110000000010000100010001001100000000001000010000100000000100000000000000010100000101001111100110001000000010000000101101100000000010000
100000011000000000101000001000001111000010100000000011001010010000110000100010001000010000010000000000011000000100001001011001010010010111000000000000000010100001100010000001001011
000000100000000000110010000000100000000100000000000000000001110000001000000111001010000001010000001000100010100001000000000001010000000000010000000000000000000000000000100011000001
001000010000110001000000011000000010000010100001000001000000001000110000100000000000110000000001000100100100000000100000000100110000011001000000100000000010000001000110001000000000
100000000110110100001000100010010010010010001000000001000100100000001000000000100000000100011000000001001000000011000000000000000111110100000101000010000101001011000010000010000100
001100000100100000000000100000011000000000000111101000000010000000000100001000000010000010000001100001100000000000000000010000000000000010000000000000000010000000000101100010100110
000000010000000010000000001100001001000010001000001001000100000000100000010010000000000100010001000001001000010000010100001000110010001101000001000001011100000010000010001000000000
100100000000000010000101000010000100000100000100000100001000000000000000000010010010000000010000000100000110001100000000100100000000000010000001100100101000000010000010000010001101
010000100000011001000000100100010101001001001100000100000110010011000100010100100000000100100001000000011000010000001000101010000000000110000000000000011001010000001000001000001000
000000001000000110000001000100000000001000000010000000010000001000101000010000100001000000000000000001001000010000010000010100000100000001100000001000000000010000000010000100001000
000001000000010110000010010100000000000000101000000001001001000000000010000100100110100100000101000001000111001000010010000001010000101000000010010001000100000010010000000010101010
000000100100010000100010000000001000000000000000011100010000000000010100000100101011001000000000000000000001001000000000110000001100100000110100000000001000000000000000010100110000
000000100000001000110000000000000001100100001000101000000000010000011000000100000001010110000001001000100000010001000001001000110000101000000000000001010010000110000100101000000000
001000100000001011001000001010000100000000001100000011001000001010000010100001010000000001100100000001000010000000000101010000000000010001001100000000000100100001001100100010000001
