010000000001000000110010010000100110100010001000000010100000001110000101100001101000001001000010011000100000110000000000000001100100001000100100
000110000011100000001100001000100000110011000000000000010011011001010000000110000101110100101001100000000001000000000100100000111100001010001010
001011000001001000010010010100100100110000000100100000101100100010000010110000100110110000000000000100100000000000000011000000000000000000000000
000000010000001000011000000001010001001000010011110100000000000001100000011000000100101000000101100100011100110000000001000001001110010000101100
000000010100010100000100111101000100000000000101001000011000001000000000000001010010000000000100000101010100001000110000110000000010010011011100
011100010001110000001001001010010010011011100010010110010010010010010010011011000001000000000000000000000011101000000001000000010101101000000000
010110000010000000010010010001001001000000100010100000001001001000000001000000001000100001001011010100000001000000000010000001011000100000000000
000000001000000111010010010010010010000000100010000000100000100000100100100000000000000000110110110010011010001000000001000000100000000000000000
100100100000100000010010010110110110100110100100100110001010101010001000001000000011000000100100100001000011000100000100100010000000001000101001
001110100010000010100000001000111000000100000010001100100000001010100000110001000000100000100000010100110001000000110110001000100001001100100011
000000001000001000000010000110001111100011011010000000110100001100000000001110000001101100101000111111000000000000000000000000100010010110000111
011110000001100000010010010110110010000001000001001000100000000000000000000000100110010000010000010010010010000000001001001000001000000000010101
000100000010101000101100000100100110000000001010000000000000000001011000011000000011100100010001010000100001000000011001000000101000001001100000
100000000110010000001001001011001100001000110000010101000010001001000111001001110000000100000010000000010011100000001000011000000010000100000011
100000000001000000010010010110110110100100100100100100010010010010010010011000000001000000010110100000000000110001000110000000000000000000000001
000000000001000000011011011001001001001001000001001000000000010100000010000000000100000000001000000001000110110011000010000000000100100100010100
000000000111001000001011001010000101000000010001000010100110000000001100001000100001000110000100001000010000010010001101000001000000001110110000
110111100000000010000101100100000100000000000000000000000101000000001010100100101000000000101000000001001100100001001100000010101001010000111110
011000000010010000000000010000101010110110101010100000100011101010001100000011000000001010101000010101010000101100011101001000000000111001101000
110000000110011000100000100011010001001100010001101101010100000001010000010010100000101000000101010001010101000010010001001001010100001000000101
011110000011100100100100100001001001100100000101100000001011001011011011001000010000000000100100001001011011010000000001010000000000000001000010
000000100000110000100100100100100100100000000100010110010010010110110110110000000001001000011001001100100100010000000100000000001000000000000000
010000000011100000010010010000010010010000100001000000000000000001001001001001000100000001000000000011011001000000000000000001011010110101000000
001110000000110000100100100001001001100010100010110110001001001001001001001000100011100000011010010001100100110000000100000000001111000001001001
000011000101001000101000111000100000000010111000000010001010001000000010000000010000101000001001001010100000110000010001111010001000000000000000
001110000000000010001100100001001010000000000110000100110101111001000010100010000000000100000010010000000010110100011000001010000000000000101101
011010100011100010010010010100100100000001000001001001101000010010000000000000010100000010011010010010001000000000000000000000000000000000000000
001100101011110010000000111101000000011000110011000011110000001001001000001000000110000101010101001001000000011000011000000000110000000000001110
100000000000001100000011011001010000010000000000001110000101011000001000000111001001110000000000010010001111100011000000010000010111100000001100
001000111001000000001100111101010000010000110100000100001010000100110011001101000000000101000000010000110001000000000101000101011100010110010001
100000000000100000010010010110110110100100000100000000000000001000001110011000000011000000100100110011011011000000001000000000011001000000000000
010000000000100010001000011000001100100101000010000100011010001000000001000011100000110000011000001010100000011000000000100000100100100101001001
000010001010111000101011001000010010001100001010001101000000110001000001000001000001110010100010010000110001000010000000100000001011000000111000
000101101001000010100000000100000000000111001100001001100000000000110000011001000100110000101010000000100000111000000000000010000101011100110000
000000000000101011000100100011001010000001000001001001001101011110010100111001000011101011100000000000000000000110001000100000000000100101000000
110000100000000000001001001001001001100010000100100010100100100100100100011000000011010001111011111000000010010100000010001000000000010001000000
100100001001100000110100110001001001010000101010000000100100000000010000011000000100000000000010011001001001000010000000100000110000100000000000
001000010100111000010110000000100110000001101110001000100000000010000010011100000100010110000000000100010001101000000001011100010101000001100101
000000000100100000001001001010110110010100001000000000000001001000001001110011000001000000001001001000001000010000000000010000000000001000001100
000000101010000011010001010100000000001000100101000000101000101001100100111100000100000010000111100010001001001000110000010000010000001001110100
000000001000010010001001000000001001010000000010010000000010001001001000100101000000100010100000000000000011000110000100000001000001001000100100
000101000011100101100100100001101001101110000000000000000011011000000001001000000001000000101000100000101101000000000000000100000000001110000000
000100000100010000001010011100101011001001000000001010111000001110000110100000010000000000000111001010100000000101001100010000010100011001000000
000000000000000000001001001010010010100010100010100000010010010010010000001000001001000000100000000100001000110010000000001000010000000000000000
100011011000010000000000100000010110001000000100101000001100010001011010110100000010101000010001000101000010010010000000001001100001000100001000
000000100000100010001001001010010010101100000001100001010011011011011011010000000001000010001001001000000010010001000010000101001000000000001000
111110000000001010100100000001001000001000001000010100100000010001000101000001010000000000011011010100010010000000000101000010001010110100010001
100100001001010100001100011001000000010101100001000000000100100011011001111000000111000000000000010101000000100001000000010111000000010000000100
001000011011001000000101000011000000000101100011010001011001000000100100000100001011100000110100010100110100000000000100010010000111001001001000
100100000000100000011011011100100100000000000000000101000010010000101000001000000100010000010010110100000100010000000010000000001001000000000100
100001000100001000011011010001001001001001001001001000100000100101101101000000000011000000010000110000000000001000000100000000000000000000000000
110000011100010010110010110011011011001000000000011000100000100101100000001101010000000000010100000000000000000000011100000001000001000110000000
000010001100011000100100100011010010000100101100001001000001000010001010100101100000011000000010000111000000000000000000110110100000010000001000
000100000011100100100100100100100100001001001011000001000110110110000110011100000000000001100100100100100100001000000001000000000000001000000001
001010000001010000001001001001001001010001100010110001001001001000000000100000000100000000000100000000000010010000000000000000100000100100100000
000000000000000000001001001001001001010100000010100000000100101100100000001000000000000000000011011011011011010011000010001000100000010110100100
000100100011110000100100100100100100010001001010001001001000001010100010011110000011110000101101101100100100010000000011000000000000000001000000
011000000011000010010010010100100100001000100001000001000011001010001001110000000110000000011010010011010010011001000101000100010100000000000000
010010000100100000110010000100101010101000000001001001000011100100100000110000101100000000100100100010000000011010001101000000001000110000000001
001001110000101010001000101010000000000000101111100000011100000010100001011110111000000001001111010011100000001000100000100010101000000000100001
000100000011000010100100000011000110101010000101010100000001100000000000011001111010000000000010011100100110000101010000101000000001000011000000
010100010000000101001100001110101010001110000001111000010111100100000101110100001000101000000000000101000011000100000000001000000000000000011010
110011000100011000011011011001001001010011010010100100010010010010010010100000100110000000000010010110110110001000000001000000000000001000000000
000000000000100000010010010100100110010110110110010000000001000011001010001000000011000000100110000001000000011001000000000000000010101010000000
000001000000001000110110110010010010010010110110110110001001001001001001100011000100000000100100000000000000110010000000001001000000000000000000
100000000000010001001000000000001000000000110001100011100000000100000100011010100011110110000000100000100000010010000011010000001100001000001100
011000010011110010010010010000001000001000000001001100010000000000000000010000000100000000011011011010001000010000000000001100000100010101000010
000110000000100000001001001001001001010100010010000100000000010010010000011000000001000000010001000001001011001001000000010001000001000000000000
010011010000001001010010010010010010010010100000110110100100100101101001110000000110000000110110110011011011010010000011001010000000000100110000
000001000100000000100110100010010010101100001101000100100100100100100100000000000011000000011011001001011011010001000010000101110100100000000010
001001000010001100000000010001001001000000000000010010001001001000001001100001000001000011001000000000001000000100000000001000000001100000000101
000000100100111000000011000100100100000011010000011000000010010000001110110000000001000001110000101000000100100000010101000000100101010000100000
001001101000100000000010101010010000100000000100011001111000100100010010011100010111100101001010010000100010100000000010000000000000110010001110
110000000111010101001000001000100010101000000000000001000000101111001000110010000000001000100000111010000000000010001011000000001000000010100000
001010000010000000001001001010010010101001101001101000010010010001001001100100000000000000001001011010000000010110000010100100001001001000000000
000000000000001100000101001100111011100011000010100000100000001101110111010111100000000011011000100000100000100001000000111000010000011000010001
011001000110011000001001001001001001000011000001001011100000000010000010110000000100000000001001001001001001011100000011110000000000010010000100
011011000000000100101100101000010010001000001000010100000100011010000000010000100000000001010100000000001000010000110100110110001001000001011000
000000100000000000010110010011011011000100000010000000000101001000001001001000100001000000011010001100100100000000000000010000000001000001000000
000001000000001000010010010010010010100010010100010110010100110110110110100001000100000000000010110011001001011000000011000000010000100000001001
001000000011011010001011011001001001100100000100100100000100000000000100100000010100000000011011001010010000100000000100000000000010000100100110
010101000000101000001001001001001001000000000100000100000000000010100000000010001001000000110000010001001000000000000011000000001000001000010000
000011011001011100010010010001001001100000100100100010000000100100000000100100001100000000110110110001001110010000110010001001000000001000010000
000010010001100000100100100000001001100000001100010010000000000010000010001100000011100100100100001110000110000001000000000000001000001100000000
000101010000000110010010000110001011000000010001000110110000001011101100100000100010100000010101110000100000101000011000110001000100001100110000
000100010001110010100000000000000000101001101110110001000000010001100000000001010001010001010110001010000001000001010100001101000010000100001001
010100001011000000100100100001001001000010000000000000001011001010011011100000000110000000000100000001001001100110000000100000100000100111111011
011010000101000001011000000001000110101110010000011111001000011011000100010000000101000000100001000001001111101110000100000000000000001110000100
011100000011100000010010010100100110001000001001000001000000000001000001100000000110000000011010010011010010000000000100000000000000000000000000
000011000110000010100100100100100100100000100100100100101101100011011011100000000010100001001001001010010100101001000010000000100100110000100100
101000000000100010001000001000100000001000000001010000011010010110000111100010001010001000101010000100000000000000000010101100001000000010010110
000000010001001000000010000010010000010000000110000000100000001101001001100000010010000010001001001000010010000000000100110000000011010000001001
001000000100001000001001001001001001011001001011000000000000000010000000010000000000000000001001001000000100000000000001000001100100100010100000
100000000100010000011011011100100100001010001000000001000000000000010001001001101001000000100110000000100100100000000000100000000010000110000000
101110000001110001000010000100000001100000100000000011111100001001100011110011000101000011010000000010000000011110001001000000000100100100000000
000000000000000011000010010000100000010000000000000100000010001001010000100000101000000111000010011000101001000000000100001001100110100000010001
001101000110100000100000101100100000001000000011100010010010011101000100110010000110000100000001100101000010101100100000010011011000000000010001
010100001101000110110100100010000010001001100000000110001011100001010000000000110001100010000000110010000000100000100000000100000100010000001110
000000111100000100010010010100100100001000001000001001110001010000010010100000000000000000000010000000010100001000110011000000000000000100010000
000000000100010000101101101010010010010010000010000000000010000110010010100000000010010000100100100000000000010000000100010001010100000011000010
000010001001010110000100000001111110001000001010100011010000000001000000100010100000100000001000100100011010000011100011001000001100000010000000
010000010000100101001100000000100110100101010000001000101010000001101000001100100001000010100000111000011100000001100000101100000000001000010100
000001010010100000001001000110000010010010010000010010000000000100000100110000000100000010000000001000011000001010010010010000001001000100000100
100001000100001000010010010001001001010001001001010011011011011001001001100010000000001000010100110011011000001100000001110000000010011000000000
000100000010100000010011011101101101010010110010010010001001001001001001001000000001000000100000100000011010001000000000000000000000000000100001
000100000000010010001100011000001000001000001100010001101010001000100110111100101010000101101011000001110100000001000010000101001000010100110001
110000000100000000010010010001010011100100010000000000000100100000100100011000000001000000001001001001000000010001000010000000010110010000000000
001011000100001000001001001001001001010000000010110010000101101000000000100100000100101100100100100001001001110110000100000000000000100010000000
001011001000001000100100110010011010100010010100010110110110110110110110100000000110000000001011011001000100011011000001011000000000100001000000
000010100100000000010000010010010010000000100000001000000000000000001000000010100000100000001000000000001001001000100000010000000100100001010000
110100000000000000001001001011011001100100110100100110100100100101000001001000100011000000100100100110110100011100000011000000010101011000000000
010001100000111000001001001001001001010100100010010110001001001110100100000000000010000000100100100001001001010001001011000000110010110010101110
001000100001100000100000100000010000001010100011000010001000000111100010010001001101010010000000001100111010101101001100000010000000010000000001
001001001001001000010010010001001001010010100010100110000000100010110110110000100100000000100100110001000001110011001010001000000000101010011000
111100000011100000001001001010010010010100001110000000111111100101011111011000000011000000110100110000011000001001000001110000000101000000110000
001100101011100011001001011101000000001100000000111000001110001000000100001000100010001001100111000000010001000100100011000000010000000000001000
001000100000000011011001011010110100000001100001000000011100111000000000010001000000000100110000000100100011100000010000110000011000001000010001
100010001000001010100101000100101011001000001110000110000101100000010111111000001000000110100001011000000011100010100011000001110000000110000001
011000000011000100001001001001001001001010001001001011100001101100101000100000000100000000001001000011010001100100000011000010000000100011001001
000000001000110000000010001100110000010101000000000000100110100000111000010110001010001111001000100110010011000000001000000000001110011001100010
000100000000110100110110110001001001110000000010000000100100001000100000011001000001000000000010000011001001000000000000000000000000010010001011
011001011011001000001001001001001001100100110010100100000000000010100100100010100110101000001011011100001000100000000101100000000000000100100100
011001000010001010100100100000000000000010010000000000000000000001001000100001000110000001001001000100100100000100000001000000000000000100100100
010000000011001000010010110110110100010000000100000000010000100000010001100000000100000000000000000001001001100100000000000100000000001000000010
000011000000000010010010010100100100010010010010010100000001000010010110110000000100010100001001001000000010011001001010010001001001101000001000
100010010100010010011011011100100100000000001000000001001000000010000000001000100001000100100110010100110100010100000010000000000100010001100000
100001110100011000100100100100100100011011001011001011110110110001001111110011000001101000100100100100100100110010001000101000010110000100010000
001010000000000100001000011000100110100001011011000011010110010100001000000000000000100101000001110100000000110100010010000000111101010000101110
110000001000000000001011001000111101100000101100110001110000000000001000000100010000000111010010000100001000110011100011001000000010100100010001
000010101000100110101111100000100000110000100101000101010111000001000000001001000000101000000000000001100000100000000010001100001100111010000000
001011001000000000001001001001001001010010110010110001010010010010000010100110000110000000001000011101000000001100101000000001010100100100000001
000001000000000000001001001001001001010100100010010000100100001100000000000000000110000000100110100001001000001000001001100000110100000000000000
001001000000000110001011000000000101000000100110110000101010001110000000100000101001000000000000000111000001110100000110001000000111100111010010
101100011100100000001001010000001101010110000000010000100011000100000001000010101100000001000001000010010010000100000000000000000010100000110001
000100100000010000100111001010010010001010010000101001001100110000000000001000010000001001000000000000001000000010100001100100001101000000000010
000000000001000000010010010010010010101110000101000001101100101001100000010000000100000000000000000011011011011000000011000000010000100010101000
011100000010010100100100100100100100100010100100100000000001000000010000100100000011001010000000001000000100101001000000000000100000100000110100
110010100000000000001001001001001001001001001001001001101101000100100001110000000001000000010010110010011011100000010000000000000000000000101010
010100000100110000100100100100100100100100110100000110000000000010001000001000000011001001100100110110110110100000000100000000001010001100000100
001010100000100100010000011100000000010011100000001000101000100000110010000010000000000010010110010101000001111000100000000010010001000010000000
000000000001001000010010010001001011100010100100100110110000100100000100100000000100100000000110000011001011010100000010000100000000001000000001
011100010001000000100001000001001101010001110011100000100000000000110000000001000001010000000100100001100000001100100001100011000101000000000100
010010000000110100000110000000101001100010001000110100100010001000100001001000000111000001001111011000011001000000000001010001110010000010110110
011000000101000010101100011100000001100000000010000010100100000011000110010110010000000000000000001000000100001110101101011111000100100000110100
000000000000000000110110110010011010000000000000000100100000000000100000001000000001000000010000010100100100100110000100000000001001000000000000
101101001101001010010010000010100000000010010000011100011000010101000011011000000000100000100010000000000110100000000000000100111101000110000000
010001000100001000100100100010010010110011010110010010010010010010010010100000000110000000000000000100100110001100000011000000011101000000000100
010110010010100000001011101110000011000101111100111010010001100000000111000000010001011000100110001000010000000000000100000000011100100000000110
011010010001000000001001001001001001100100010100100100000100000000000000100001000100000000010001000011011010100001100110100000001011011010100000
000000100100011000000000101011001010101001000010010010100100000101010011000100101010000101001001000000000010000000000110001000100001001011101101
010000000001110000100100100011011011100001000001000000011000000000010010000000000100000000000010000001001001011000000011000000000000100000000010
000101010011010001010110000001000100000110000010000000000000010100001101010000001011001100010010000000101000101000111000001101000000000000100011
000100000011110010011011011110110110000010000000000000000000000000000001001001000011010000001001000100000000001010000001000000000000000000000100
100111000001111000000010000000001100010010000000000001000100000000101011010110001011001000111000011100000000000000000010010100100001100001100010
100000000011100100010100001000110000001000111010000000100111010110001001000000011000000001000111100101000110101000001010100001000010000000000100
000001101110001001010010010001001011100011001100000001001011001010010010100011000110000000001011010001011001011100000011100000000001011000011000
001100010001110000100100100001001001000001001011001000111001011111001010011000000000110000010100010001010011001000000001000000000001000001111000
011000000010000000010010010100100100010010100000000010001001000000000000001101100100000001001001000000000001001000011000010000000001010000000001
000000000101001011011100110111000000001010100110010111001110010000010000000000110100000000010000110001000110000101100000110000000000010011000000
011000000001011000100100100010010010100010010100110100001011011101100101100100000100100000100000100011011011100000000010000000000000000011100010
001010000011110000100100100001001001010010000010001011001011001011100000100000000110000000001000000000010001100000000001000000100000000010001000
100000000000000000010001011010010000000000100000111100100001100100000000001101000000100000010010110101100000100000000100000000000000000010010000
010110000000110011100100100001001001100100110010100100001011011011001011011000000011000101011111011000000000110000000110000000000010100110000001
000000000000100000010010010010010010010000000100000000101101101101101101011000000001000000001001001000000000011001000011000000000110000000000000
000010000001000000100101001100000000100001010101010000010000010010000010000000010011000000101101000100000000000001001000000100001001000000010000
010010000001110010100100100001001001000000000010000000001000000011000000001101000001101100000010000000010000100100100000001100000100000010000000
000000000000001000001001001010010000100000000000000010000110000000110000001010000010100000000000001000001000000010001001010000000001001000001000
000001000100001001100100100010010010110000000110000010010000010010010010100000000010000000100000000100000010001100000010000000000000000000000000
000001000000001000010010010100100100010100110010100110001000001011011011100000000110001000100001000010010011110000000001001000101011000000100111
010000000001010000100100100001001001010010000010100010001001001001001001100000000000000000011001000000001010100000000100000000000010010000111000
001001001011001111100100100100100100011100001110000000100100101011110001110110110110000011100111010100100110100000000011000000000000001111111000
110011000110001000010011010100100100010000000010011110010010010000010000000000000100000000001001011100100100001000000001000000010000000001001000
001011100100011001001001001001001001110100110010110110000000001000000000100100000100000000110100110001001001110010000100000000000010010011000000
001111000000000010100100001101000000110001000000111010011000000000100001110000000011000001000010000000000000011100010010011100110001100111110011
110100010000101010000011000100100010100110001010000000000101001110001010000011000110001000010010101100000000000101000001111000100000101000001010
011000111000100010010100010010100000010100010000000001100100010110011000000001000011000001110100001101000010100000010000001101001100010000011011
001001000000000000000011001101101000000100000001010100100011000000010000001000011011000010100110000010010000100010000000110001000000110000011111
100011000000000011001000110000100000001011110001110000010011111001100010010001001101100000011000101000000111000000011001000000100000010000101100
000000000100000000110110110011011011110000100010100100101001100101000000011000000001000000001011011101000001011000000000000000000000000000100000
100010110000000000001000000010001000100100101000000100000000100001010011100010001110101101011011101011111000010110000001000000000000010100001000
000101000000000000001001001100100100000010000100000100011101001101111101001000000001000000000000010100100100000010000100000000001000000010000100
000011001001001100000101001111100000010101101000000111101101000000000010000010010000110000101100010010001001001000100000000010000000011001010000
000000010000000110010000011001000000000011010100100111100100000100000010001011100001011000000100001010001001000110000000100000011010001010001010
000100100011100000001001001010010010010100100010000100101100001111001000001010001011000000100100100010010000100001000100000011000110010001001001
011000000001100000001101100001001001011001000000010001011000000100101000000000000000000010000001001000001011000011000101000000000010000000011011
000000100001000000001001001001001001001010100001110000100100000000000000110000001100000000100000110010000000010001000010001000000000000010001010
110100000000100000010010010001001001110010110100010011110110110110110100011000000011000000000100000000010000001001000001000000000000000000000000
010000001001000000001001001000010000001000110001001001100100100100100100100000000100000000000001000000011010100000000100000000000010000000000011
111000000000110000011001000110000011010000010101000110001010000110001100100000000100000000010111010001001110100101011000001000100111000000001000
001001010110001000001001001001001001000011001000011011010000100010000100011000000010000000001001001101101101001110000000100000100000100000000000
000100000000010111101001100010000000010000010001001010110010000110000010010001000100100100110000000001110100101000000010010000000001100100010001
100001000001001000010011010100100100001101011010100001110110110001101101000000000100000000000000000100100100010010000011000000000000001010000011
000000001000100000100100100100100100100100010100110110001001011100001001001000000011000000010001000110110010100000000100000000000001000000000000
100110000000110100100100100100100100110100110100100110001011000001010000001000000001000000001011011100100100100011000110000000000100000000011010
000000001000000010100100100100100100101000100001000000100100100000100100110000000100001110011011011001001001010000000010000000000001001001000010
100011000011100011000000100100001110100000001101000000101100111010000100010000100000001111000010000011110001010011000010000001000000000101000000
011000000011110000100100100001001001010011001010000001000101011110111101000000000010000000000110000001011011001100100001000000111111011100010000
000001001000000000100100100001001001000000101001011100000001001111000011000000110100000000000000101001100000101000000100001001000000100000001000
000001001100001100100100100010010010110011001110011010000010010010010010110000000100000000000100100000010010011110000010100000000000000101000010
000100000000100000001101101100100100110010110100110110001001001000000000001000000001000000011011011000100100100000001100011000000110000000001001
110101010010000100000100000000100001001000110000000011000000111111110001000000100100101001001000010001000101010111000001010011000111000000001010
100000101001010011001101111100000000101000111010000100000000000001001110100000001000011010111000001000010001000001000100011000101000010001000000
000101000101000101110010011001000000001110000110001110110000000010000000100010000101000100011010000110001000111000010100001000000000011000000000
000001100000001000110000000000010100110100010101000010000010100110000010001000000100001000000000000011000010001000110000001001000010100100100010
000011000000011000101101101011011011110010100010100010010010100000110010100001000110000010001011011100100100010000000001001000000001000000100100
010001000000100111000010100000011100110000011000000000110011100011011001000000011000000000000000000100011100111010011110100000100111001000011001
000011000000001000100100100001001001010010110010100110001001001001001001100000000100000000100100100100100110001000000010010000001000000010100100
000000001000001000000000001101011100001100010000010000010000000100101010110001001001100100000110001000000010110001100000000100000010100101010111
100011010110001000100100100010010010000000000000001001001001000001001001100000010011100001100100100000010000001011000100100001000100000000000000
010000000010001000001001001010010010001011001001000000010010010011001001100000000100000001001001000000100000010000001000000000000000011000000000
000000000110000000100100100110110110001001001001001000100100100100100100001000000011000000000000000000000011100000000100000000000000000000000000
000001000100000000001001101111100100000001000010000111000000000000111101000000110001010001001100000001110101100000000000000000011011000000000010
000010000000100000010100011001010001000001000011000001000110000100010000000100000001000000100000000100000100001000100001000000000001101100111100
110001000100001000010010010100100100011000000010001010010010010001001001100000000100000000100100001110110111000000100001110000110010001100011011
000000000001001000000000000100100100100100100100100110010010010010010010110100000100110000100000100001011001100001000010000001000000010000000011
000001100000100000001001001010010010010000001010000000101100101001101001110000000010000000001001001000010100011000000011000000000000000000000000
100010010110000000011011011001001001001001001001000001100000100100110100011100000011001000000000000100100100010000000000000000100000000100100100
100001010000001010111001101100000101000000100010001010010101001000100100010000000001000000001000000010011100110101000000101000110001010000000100
000110000011100000100100100100100100001000001001001011001011001010010010010000000110100000100100100101001100100000010000110000000000100100000100
000001000000100101001001100000000100101100100110001010100010000100001110100000101000100011101010000000001000101000000111100000000000000000110001
100100000110001010100001001000010000010001000101000001000101110000000001000011000001000001100010000111001001100001011100001100010000100001000000
110111011111001111011001001100011011011111110110011110111011110101111001101111110111110111111011101100011011011110101110111001111111111111101111
011001010000001111000010010011001010101000000000000000000100100100000100000100011010010010010100001000100100000101000100000110000000100000000100
000000000110000000100100100110110110001000001001001001100100100100100100011000000011000000100000000000000000110000000100000000000000000000000000
001000000000000010001001001010010010001000001001001000000011000011010010000000000000000000001000001000011011010000000000000000011000011000001000
000110110000100000110110110001001001010100100100010110010011100011011111001100000001000000001011000000100011000000000110000000000101000011000000
000000010100000100110010110011011011110100000100000000000110011001000000001000000001000000011000011100100100000000000101000000100000011100000000
110100000000000000100100100010010010010010010001001010000010000010000010000110100110000101010100010000011001001001000001000000010110100001010010
100000001001100000010010010001001001101001010001001010010000000000100110011000010100000000010000010011011001110000100010001000110100000100010000
000001010000001110000010010000000000100011001100100010000000100100010000100010000110000000001000001001111011010001000001000100110000000000000110
101000000100001010110110110011011011100100000100100100000000010000010000001000000001000000010000010100100100100000000100000000001001001100000100
000100110010000001000101100000100000110101100101000000000000010110000000011011001000000110000010100100000100001100000000001100000100010000110000
000110100100001110010000000101010000100000101010010010101000000011110010000000000100000010000010011000000000000100010000110111111011100001010110
000000001001000001110000100100100100110100110010100000010010010001101000110000000100000000000100010001001001100110000100110000011010011110000110
000001000000001000101100001010010010010010010100110110001000001001001001100000000100001000100100100010010010110010001000001001010010001000001001
000000000010000101111000010100000011001100010110010001000001010110001011010000010000000001000101000101000110001010000000100000000111111101000010
010100000011100000010010010010010010000001001000001000000000000111100000100000000100000000010010010000010010010001001010000000000001000000000000
000110000100000000001001001010010010100010100100100110010010010010010010001001010001000100000000100100101101010000000010000000000000001100100000
001110000001100010001001001001010000010000001010000010100000110000110100010100000000000000001001001010010010001011000001010000100000000100000000
010000000000000010000001001010010010000010000010010001010010000000000010001000001000000011100100100000000010010001010000000000001000010000000100
100100000000100000010010010100100100110010110110110110001101001100001001001000000011000001100100100000010000100000000100001000101000000000010000
000010000000000000110001101000100101011000010101000010010101001000111011101000000100000000110010001101010011001010011111000010000110100000000110
010000110101010100000000100010101111000001100010111111100100000111010010010000000000111010111001000100000001100000000000000001000000010010101100
110100000000110000001011011001011011000010010100010010010010010010010010001100000001000000000000101000000010001010000001011000001000001000000000
100110100100100000011011000011011011110000000100100100110001000000001000001000001001000000000001000100000000010000000100000000000000100011000001
110100001110000100100100100100100100100100010100110100100010100010011000001000000011010000100000000110110010100000000100000010001011001100000000
110011000000001000010010010100100100010010000010010000010010010010010010110000000100000000100100000000000100001001000001010001010001000110010000
001011000100011010001001001001001001010001011010000000000001001000010000110001000110000000001001101011001001000110000000100000000000100100100110
000000001001110000000100000001001000000011000011001100100000000000111111000000001111000110001010110100010001100000010010000001001000010000000001
000001000001000000000000010100100100010110110010010010010010010010010011100000001100000000010000000010000010010010001001011000000001000000000100
011000000001000000100100100110100110010000010010100110010010010001001001100010000100000000100010010001001001100010000100000000000000001000100000
000010110000110010010010001000000001110001001100110010011010100000000100000000000000001010010100010101100001010100011000001010100000000110001001
100001000000000000001000000001011011010001100010010010100010010010100100001000000100000100001001001000001000000000000000000000100100100000000000
000100000000100100100100001100100100100000101100000000000010010010000000000000010001000000000100000000000000010000000000010100000000000001001001
010100100001100100100010100100001011000000000000001000000110001110000001001000000001010000001101011000001110000110000100001000001010000010101010
001100001011010000001001001010011011001001011001001011010011110001001100100100000100000000001001001000010001100000111001100100101010100011000000
