100101011011100
111000110001100
111000000010001
110001100000000
100101111101001
010111111110011
000001001100100
111001110100011
011111000011000
000001101100110
001100000010101
100111101100011
101101001001001
011111101101100
000000101000010
100000100101100
011101111010110
011100110011110
001010010110011
000000000110110
001001010001111
110101010011100
000000110100001
110110100010011
100100111110100
000001100100001
100110010000010
111000001101101
010110100101010
110010001101110
100001000010000
100100000001110
100101001000101
001110111111001
010111011001100
000100101100110
011111111111110
011111111111101
000111011111111
011000001100000
111010111100111
100001100011100
000010000000000
011001010111000
010011000001010
111000110101001
100011111001010
110110011100100
111000011000110
101011111011110
001000100011110
011111111111010
110111100000010
111110001110001
110111001111001
001101110101110
101111101111001
000000000001110
111000000000100
000010001010100
011111111110111
011111100111111
000011111100001
000001001000001
001101011011111
011101100011100
111101000110001
100001011110110
100110111001111
001111001111110
010011001110010
110111000001100
101000010010101
001101001110001
000111100001010
001001010110001
101110011111011
001100101001101
010011000001010
100000101100100
101100110010110
000000100000110
001110110110101
110001010100101
111010011110001
101000101111011
101111111111111
011100100000000
011000111010101
110100000101000
101101010000100
101000110011101
011000100110000
111000111100101
011110111011000
111110110100101
110110110110000
111100000000010
001001000000010
100101101110010
000111111011011
111101111100000
010000111111111
000000101010010
111111100100001
001111011010010
101011101011110
010001000101100
111001111100111
000000000100111
100011101000111
010111111000011
011110000001011
101011101110010
110000101101011
011100110000010
001000001101100
010100101111010
111011101000101
011011111000100
001111111101010
110110001010010
110101011011011
011110011011011
011110011110101
011100001111101
111101111110001
101110101110001
111000110001010
110000011100101
000110110110111
000110110100001
111101110101111
011011101101110
011000110110001
000001110001010
100000110000010
001100011000101
010010101010000
010010001100100
001111000100111
000100011111101
101001101010011
000101000001000
101100011010010
010100010110001
001001101011011
111010001111011
000100111011111
010101010001111
001000111001111
000100000000000
001000111111100
001000000101010
110111011110000
101010110010010
100100100101010
110111000010000
101000011111000
000110001110000
110000000111110
110110111111110
011100000101101
101010010110010
001010110111111
011010000000110
001010000101101
000000110100110
001110011100101
000001101110010
111111001011011
101110101101110
000000000100100
100111101110000
110000000100010
110101011011001
111111110010011
110111011011111
110011001000110
001011000111000
011000011111000
110100010001001
110110110110100
111001010111011
010011001001110
010001010110001
000011110111011
100000100111010
110000101011100
011010011110100
100001110000010
111101000011100
110001101111010
110001100110110
000111001100101
010111100011010
100000110111111
010100000010100
010000101010011
001100111101101
001000100000011
100101101101000
101000000001101
101110001010110
011101101001001
100010011010101
011100111111110
001001011101111
000101100011011
101000100100110
011010110001001
000010000110010
010011111110101
000001011001101
111110000010100
100000011011000
010001111001101
000111110010110
000101000101001
110001100100110
010101100101101
110000011001011
011100110001110
100011110111001
111010011111110
011011010011101
011001100001110
101000100010000
010101111100010
100000001110000
010100011000000
110011010010011
111101111110101
101010000001010
111111111001000
000010100101110
110111110001010
101111010100100
110101100101110
111001111001010
110111000110100
011011111100101
111010100111010
011111100001011
110101001001101
010000100000000
000100101000100
011101100111100
011111111110001
101111101011100
110110001000000
101001001111111
101011011101010
011101000111000
000000101000001
010010000100010
