0000000110000000110001011100010010010000100100001010000010010000100000001000100010010000001000001000000011010100000001001010010000000100110000001010000010000000
0000000100100001000101101010000010000000010101001100010010100001110001011101010110100010111000010100010101100011110001010100001111000111111011011110001111010001
0000000000000000000000000000000011001000110000001010011011100110110110101100110011011101011111110000100111101111111001110110001101101101011001010111111100011100
1001010000000110000100010101011001000110000010100000011011010010010011100100000110001001110011011110000010010011110000000010000000100011110000001000011001000010
1111110111111110111111111110111110111111111111111111011111111110001111111101111111111101111011111111111111110111111111111111111111011111111111111111010101111111
0001011010010010101100101101011010010111100100101111001001110110100100101011000011110010100101100010001110000100000100101101010000110100010001101100010000011110
0010000001001011111001000101001000000111111111000111111101011111011011011101111101111011011000110101101110110010100010111100101100000000010000000000000000000000
0011111100011100000011000000111100001111001001000001111100111111001011110001010100001110001011010000010000001110010111000000111000101110010011010100111100100100
0000000000100010000000000000000000010100000000000010010000000100001000000000010000000111000001001001000110000100000000000000011101000100000000001101100000001001
0000011100000111000001100000011000001111000011100010010101000101000000110001000000111011110000001101100001110000111110001101000011111000111110001001000001011000
0100010000001001110010010110110011011101111001111010100011010000011110001110100100111000000011001010111011000000010010010110100110001000010001001110100000001000
1110010111101101111000110010010000101110011000000110110000100011011000001110010100100000011000011010110111100100010001000100010001100110110001000010011001100011
1011111111011010101110110111001110011100010111111110111011001100100010000000011101000010000010000100000000000000001000000000000010000000000010001000000011111010
0111111101111101011101010001111111010001000101110111101100001001010111111100101100110001000111111111100101101001011001110111111101100101010010111111011100111001
0000000000000100001000000000000000101000001010000000000010000000000100000010000000100110000000001010000000000000001010000000000000100010001000001000000000000000
0100111101001010010011100101101101111110010011000100101000001110010011100000101000001010000010100000101001011010010010100001101001011011100010110100101110001001
0000100001100110101000100100010000000100011010101000111001011100000010101101100000001000001011100100101011100010010010000001000011000000000011000011110011101100
0000100000000000000000000001100001110000101010001000000001010100000000000010100100000100011000000000100010010000101100000100100010010000001000001010100001000000
1111100100111000111110011110000101100011111010001000100100000100001010010000011000000001001000000000001000001000100000001110011100100001011101001101001111101111
1111111111111111111111101011110111111111111011001111110011111111111111111111111111111111111111111111111111111111111111111111110111111111111111111111111111111111
0011110001110110011001101110100001111000001111000011010001110000011100000110010011011100111100000010011000100110011110000111111000101100001011000010100001011101
0000000000100100000000000000000010000000000000000000000010000100001100000000000000000000001000100000000001000100001000001000000000000010000010000100000000010000
0101000001110000011110110100110001111110011011101110011101101101101011011100100101111100011111100111011111111111111011001111110111111100011111110111111001111100
0000000000000000000000000000000100010100000010000000000000000000001100000000101000000100000000100010000000010100111010000000000100000000000000000001100000000000
1011100000010011000110001000111000110010001111000011101000000010000010101100011000110110000110100101101000011010001110100100001111001010000110100111101001110000
0001100001100000001000001000100001110000000000000011000001101001001110000010001011101101101110000110101011111110101011001011001111111111011111101000111110001001
0100000000000000001000000100000000000000001000000000000001000010000000000000001001001001010001000000100101000000010000000001000001001010010000000000000100001000
0000011000000010100100001110010011110110100000001000000010001110100010001010011010000110110001001000001100010010100101001100010001100110011101000101000001000100
1111001011001101100111101010110000001001000010010011000000011000011101010101100001111001000100000101100111110000011100010101000010110001001110111101101111111011
0010100001100000101011000000000000000111111001101010101100000111011110010000101101010111000011010100111011101000001001000010100011001000100001101000101100000000
0100111110101111010011110010011101001111010011110100011100101111010011110100111100100111110001111010110101100011111011010000110101001111101011010010011100001001
1111111101111110111111101111111111111110111111111111111101111110101111111111111111111111111111111111111111111111111111110111110111111110111111111111111111111111
1101111111011011110000111000111000011111000010110000100011010110000110000000000001100110010100010111000000010000001001001110000000110000010100001010011010111110
0000000000000000000000000000000000000000000000000000000000000010000000000000001000010011000000000000000100100000001001000000000000000010000010001000001100000000
1000010000000000100001000111100001110000100010000000100000110100000011001010000100111101000010010110000110100001101110000100110011110001100101001100011100000000
0111100001110100011110101111100011111011111000101110010010001011100000000000001010000001101000000000001000001000101010101010001100100001001011011000111011001101
0000000110110111101000010000010111010000100000011110101000100001000110000100000100010000000000010000010100000001100011010100001101000000001001010000001100001000
1111101110101001111110011100100110001111010011011000100110001111010001111000010101000111000001010000000001000100010000000010000001100000011001001110011011100010
0000001000100011010011000100101010000101100001001010000000000101001000100101000001010101000011101010101111110100101101000001000100000010000000000110100001000100
0000010000110110010000000000110011011000000011000000110001011100011110001100000101010100010011001010101100001101110011000011000100010000010100001110100000100000
1101100100010000000010011101010111011100110011001101110001111000111110000100110001011000110000000000010001010100110100000000010111000000011010001100000010000000
0000000000100000000000000000000000000000000100110001011100000100010100010001011010100101000101011111100101111110110011010011110111001101000111011011110101011111
1101100111110001110011111110111110111100110001110101110001001000100010000100010100001000011010000010110000101000000000000001000000000000000000000010011000100011
0001100110010001001110010011000100000001001110010010010100100101000011000010100000111110001110010011100100101001000110010010000100011011001010110000010100000101
0000010100000001000000001110011000010000100000001010100010000000100110010000100010010000001000001010000010110000001000001000001010100101000110001110010000000100
1101111111111110111101111110011111111111101111111011011111111101111111011111011111111111011001010111010111110111111100111111010111011000011111100111111011111111
0000001011000011101000100010011001000010000000100010001011110010111000101011001101000010000100100100101110110010111010100001101010111000111001111111100111011010
1100001010000010100001111000101000000010000010101010001000000001100100000001101000001010010100100011000001000110001101110000001000000010001100100000000000000010
1000010110000101000000010000000100000100000010000000000010100100010010010101011011110101011011101111111110011011011011000110111011111100000101001001001000110000
0000000000000100101001000110100010111010011111000111001001111110011111001101011111010111111111110001110111101010010000110000011100000001000001110000000000000000
0011110000111000001110001101100000111000101011011000101111111001001100000100011110001011000001000000011100001111101000011000001100000010111000001100001001110011
1100000011100011001000100000001110001110100010011100011100000000000000000101100010001001000110010100000000010011100000011001000110000000000010111000101100010000
1011100011011100111101001110111010100110000111001011011010000100100111000010011011101110100011101110010011001100000111011110110010001100100100011000000001000000
0000100100110101000000000000000100100001001000000000000000100101000000010000001001000101001000100000100100010001001000100000000000000001001110000000100100000001
0001100100000111100001100000010010111010100000001100101001110011111000001100100111010000001001101100001001010101000010100011000111100000000110101101100101000100
1101100110001100110100110111111111101001011010110010101101000001010000111111001111101001010101111101101101010001110010010010111000010001011110111110101001011111
0000100000000010110011000100000010010100000011000110000010010000010011001010100110010001001001011100000011100100001101001000000101101000000001000000010100000100
1000110101000001000000010001010100010100000110100000000000000000010100100110100000000101000011101111111100011011000111100011101100111011000100111011110001111101
0000011001100010111001001100000010000110101011001010100001010110000000101000010011110010001000001000011011000010111111000110000010010010100001100001000010000010
0100010110001101100000110000000000010000100000000000110000000100000000001100011010010100000111001001011101010000100011101000010100000010101101001000010110000100
0001011111000011000110010000001100010010000101110000001010100111000100100101011001101011000100000001001000110011101101001101001011011110110100101101101110001110
1100100001010101010000000100011000001001101000000011000100010001000111001010000010010001001011001001110110010111001001000101101110110110101000001010100010101001
0111101000011010010111100000001000011000001111010010101000101010000111000000101000001110001110000100101000101010001010000100101000101000100110100101101000111010
0000000000000000001000000000000000000000000000001000000000100000000000000000000000000000001000001000000000000000000000000000000000000000000000000000000000000000
0000101000000011000110000100100100001110000110000000011000111110000110000001001000011100000110101111001000010010100100001001001011010000100110001000101000010000
0011010011110100001100001111010001110000010100010111010001011101100101000001110001110100110100001011011111010100000101000010010001000111000101100000000010000101
0100000100111000001000000110000000110000001010000000100001101001001010000100000101001001001011010110000001110000011010000110010101011001010011010111110001111001
1100110011001000111001000101100010111000100000001111100011000000110010000001100000001100100011000110100011000000100010010001110000001000000010000001100000111010
0100100001001000011010001100100011101100111000001010101011001100100010101000100001000100110010100100101011001000100010000010100100001000010010101100101000000000
0001101111110110101011000110011100111111101011000000110101101110001110011101100101111101011111101111101011110110111011111111111111111111011111111111111101111111
0001000000000000000010000011100001011000010110000001000000111000010010100000000000000010010010000001000000000000000000110000000000000100000001000000000000000000
0110100111111110111101101110010100110110111111000000100101101111011111111101100111011111111111111111111111110101111011111111011111111111011111111111111111111111
1000000001100000001001000001100001010100010010000001100001111100001110001010100110001101000011010101000110010101100011110000000010000000100011001100000000000000
0101111001101010110000110000110001000000011110010001100101001000000010000000100100000000010010000100001101101001001110111001100001101001010110010110110001101010
0100100101101000110000001100000001001000010011000100010001101000010010010110100011011000011110010011110001111000011111001100110001111101011111011110111111110101
0110111111001111010000010101001010001000000000100100100000000001000010110000010000100000110000010010010000000000000000110000011011000011110000011000011110000011
1111100000110000101100101111010000110000101100001111000011110011101100001011001110110010101100000001001101110000101100101011001101110010011100111111000000010010
0000000110110101001100000100011000010001000000011010010100000111000100010100011110000001001001010000100001000001000001010010000101011000100000010000010100001001
1011111110011110110101111111101011110110011101110011001110000110010101110111011111100010110000110010111011101011011110111010101110111111100001110011111011101011
0100000100010101110010101010001111100001111100011111100110100001010000001011000011101001011100010011000000101000100010000000000000010000010000000000000000010000
0111110000111100110111000110010001101111000001100100100000010010000000110000101100100011010000111000101110000001000000101000100100000001000100010001101001001010
0100101000100010000000000000000001011100000010100001001001101000000010001000101000011000000101101001001000001000001010100001000000000010000111101000000000000000
1000101111001001111010011100101011101010110011011100110111001110110011001000110010001000110011011100100111001000110010001110110011001000011010001000000010000100
0000011000100010001000000000000010001100100011101010101001110000000010101010001011001000001001101000101111100110001100101000000101100000000001000101011100000000
1101101010111001111110101100100010000111110000100100000000000010000100001010000000000000001010000011000000001100001110000111111101111100101001001011010110101111
0000000001000100000001000000000000011100010110001011110001110100111110001001111111111101111111101110101111111111011110011110101111111101011111011111100001111101
1110000000010100001010001100000000110000100010000010100001101000011000000100000001100100011001000110000001100100011010000111000101100000001011000111110001111001
0000000010000000000000000001000010000000000000000000000000000000000000000000000000000000000000000000010000000000000000000000000000000100000000000000000000000000
0000000000000100001000000000000010000000000000000000000000000000000000001000000000000000000000100000000111000000000000000000000000001010000010000000100000000000
0000001000000010000010100101011001011110000000100001111001101000001010101000110001011011010011100011001010001011000010110100001011100011110011101001101010001000
0100011110001000000000100001010000011001100000011100110000000000000001010100011100001100000001010001000101010001000001010100100111000001100011010000110100010101
1111111111011000010110011111100010011100011111011111010011001100011010001001110001001000000010000110100100010000101010010000000000000000000000000000011100000111
0100100100001000011001000010101000001100001011100010111000101110000001000100110000000110010010100000110000001100010010101000000000001001011101110000111100001000
0111001011000110101110001010101010001110000110111000001110000100100000000001001010011010010101100001001000010010000110100011001000011010000110100011001000110110
1101101111110000101111111110011111110111111101110011111000001110111111110101111011100110111111101111000010011111110100101100011001001000010111111111000101100111
0100001101110110111111110100011101111011111000100010111111101010001101011110100111101101011111101111110111111100111111001111110111111101010110011111111101111011
0011001000000110010101000111000001100010010100101011010001001110000101001011010001010100001100100001110001100000011100100100100001110100010001100001001000001010
0000000000010000000000000000000010000000000000000000000010000000000000000000000001010100001000000000000010010000000000000000001000000010001100000000000000000000
0000000000110110000100000000000001010111100010001100000100000011001000000000000101001011000000000000010011000001010010000001010001010100110001000000000110000000
1100100000000010110000000100001001010010100010101010100011010000010010101000000000010000010011100010001100001010010011101010100010100000110011000010101000100000
0000000001000000011001000111000011010100000101000011000001000110110110001010000011010100000001001000010011001000000100101100000101001000100001000000010100000100
0001001000110010000101100010011010010110001100100010001110010010001100100101001010110010011000100011011001100010000001100111011010000111111100101011001111010011
0001110100001101100011110011110100011101000011010000110010011101100011000001010100001110000011000000111110001111000011000000110000010110100010011001110000010100
1111101111011111110111111100010100001101111110111111100111111101101010100111000111011111010111010101011111001011111110000101100011111010100110101101111101011100
0001000000000110000001000000000100001110000010001000000000000110010000000000010001001110000000000000000111010000110000000001000000110000001010001000000001000100
0111111100110011011111001101100011111101111110000110010000110000010010001110110100011000101000000110010111000001100010011000001100000110100000000000001000000001
0001011001111110011111011100111010111101101111001001111010110101001111000111110011111101001111011101110011111100001111000111110010111100111111000111110101111001
1000100000000000000000000100000001001000001000000000000000000000010000100000010000000000000000101000101010001000000000000000000001000010000000000000000000000001
1101110011001100110100011110110011001000110010100110110011000010011011010110100100100000100100100010100001001110000001100010110001000000000011001110100001110101
0000111100001101000010010001010000001001111010010001010101000000000010011010100100000000010001010000000110000001100000010010110110101001000000010000100110101101
1101110110011001110111111011111101111110011101111011110011111111110001010011110011110110110001011111100011110111101111101100101010010101111100111010110111111110
1001011110010010011110111101101011111100111101011011011011101101110111100011110111011000010001100101100111000100010010000000000000000000000000000000000000000000
1111101010111011011110101011101110111011101000101100101000000110000011001100001001000000001000000000001000000000001000000000010010101000010011011100110101101100
1000010011110110100000001001001011010110110000000000001011010010000101001100000010010100110101101000010010010100100101001100000011001010110111000100100011000000
0000000000000110100001000100000011111100001010000000000000000000010100010000001000001100010000000000000101000000000000000100000001001000010000000000010000001000
0100000101010101000100000000011111010010000000010000011101100011100000000100001101000001100100011000001101000001010000010000001101001001010000110010001100001000
1110111010111000011111101010101000101000111011101101101000101100111011101111110101111110011011101011111010101110001011101111101011101010110110101100010011110111
0100101101001010011011100100111101111100010111000100100000001000000011100110111000001000010010000000110000011001010011100000101000111011000010000100110100011100
0000000000000100001000000000000000010000000000001000000001000100000000000000000000000000000000000000000011000100001000000000001010000000000010000010000000001000
0010000001000000010000000100000001011000000000000000000101000000010000000000000001000001010000000100000000000100110000000000000001000001110000000100000001000001
1110001110110111110011111100000111001101001011011101011101110101100011101001010101101100000110110101011100000110001100001001100000000000001000001000000010000000
0000101111001010000010100001001111001000100101101101101011011010000110000101101100011000100110011100101101011010010110001101101110010000000010100100001100000001
0000010101100001111010000000010000010100001000000010110010001001100010000000100100010111000011011111000111011011000001011000000000000101011110001101010010010100
1100101111001011110010001100001111100110111011001100010001100111111000001000000000101100010000000010110000100000100010000000000010000000110001001000001011000110
0001100000110000001100001001110101111010001111001100011111001110100001000000001010000111100011101000001111000101110001111000000110000000100011011110101000101101
0000001100000000000000010010000100000000000000010000001100000000000001100000011100100010000000000000000000000000000000000000010000000000000000000000000010000000
0101111111101110111101110111111100111011001101011001101110001011011010000110110000110010001001000000000001101000000011000010100001001000000011010110110001001100
1101100001100000010000001100010001010010101000000000000000000010010110000000000001010000011001000000000110011000111000000100000010010100101010011101100000000000
1100001001000110100001100100000101000011100010100000001000010000000100100100100010010001010111110000001111010111000100000101000011001111100011101000000101100001
0000000000100100011001000000010000100000001000100010000011100001000100001000001010001111100010101111001111010001111010101101101110110011011011101110101101111101
1110101111101001110011111110000110101100011000010000110100100100001000110000000000000110110000010000100000100010011101100001010001000000101111011111011101100111
0001000001000011000000100000000000100010000000000000000100000000100100111000001100010100010010101110010000101100011111001111010110111111011111011111110111111101
0111100001111111111101101110110100110110111010000000110000111101101111100100110011011101001111111111101011111111111111101111010101111101011111011111111011111011
0110110001111100000001000010100000011000011110000111100001110000011110000101111001011100011111100011010001011010011111000100111011001011111111010100010001001001
0001101100111110011010100000101000110111001010000000111000000111000011000000110000001001001011000010111001001001000011000000110000100100001010100110110001111000
0000011100100011000011100100000010000001100010100110001110001100100011101000000110001101000101100010001010000000100000100101000001100000000010001000111110000000
0100000000000110100001100010011001010110011101101000011001010111000000100000011000001111000101000011111001010100001101100010011000010100001001001100011000011110
1110010110111111001011010001100110001101000000001000010000000101101011111000110110000101001111011010000100000101001011110010000100000001000000000010000101001001
1001000001100110011000000100100000000110101010001010000001010010011100001000000100011100000010000000100110010000011000000000100111000000101010001000000000000000
1101101111001010101010011111101110001011010100000100101000001110010010000100101011111010110000100110101000001010000100100001001010010010000000101000001010000011
1111110001010100110111011111111011111100110100001001110111011101110111001100110011011001010011010000110000001100001011100000110010111000000010000000100010001101
0111010101011100011111000111110001011000011111011111110101111100001110011111110101011100011110010011110000011000000110000011110101001000010110010010110000000000
0000000100000001101000011000000010110110101000000110000011000010101001001010000010010110100000001010011000000110101010001000110000100000101001011011010010000100
0100100001010110010001010011100001101100001011100000001001010000100001000000000101011101010110111000001100010111001011000111000001000110011011011001011000000000
1000010100000000000010110000000110000000010001100000000111000000100001101000011000000000100001001000001010000101000000000000000000000010100000000000000110000000
0000000100000100000001000110010001001101101000010110001101000111110110011100110111111111000010010011111101110110001110000011110101110010110010101000000000000000
1110100011001000111000001100010011100000011000100010100010001110110010001011100001001000110010001110110011101100100011101000110010101011111111101110111010001011
0101110000000101111111011001111010111000111100000001010011000000001000110000001000110001100000000001010010001111100000110110001000100010100100101000001000000000
0010100000101000100011000000100000001110000011101100110001111111010001000000100001000100000011100000011010100111001011001100100010000101111101110100001001010011
0011010010011111000100010011010100011111001010010011011010010100000110010101110100100001000110010011000100001001000100010010000100110001001010010001101100010001
1110100111101011110010010010001101100001000000000010110000100110100010111010111000100100010000010000110001101000010000100000101001100011110000111100111111000111
0011001011110010000100100101001000010110001100100001001000000010101100100001001011100010000001100011011100010010001001000011001000000110110001010001001110000010
1011010010000000101100111010110110010101101110110010100010011000100110110001010010001000100110111000000000101100101110100000001010100100010000000000000000000000
1001110001101110100101001101111010010100011101001101110001000101111101010000110010001101001011000000010000000100000101111000010000000100000001010100100001100100
0000000110000000001001011100011110010111110011111111000011011010010110001111010111111011110100010001110101111000100110100001111001010000010000000000000000000000
0000010010001001110000010000010110111011110100010000001110100001000110010000011010001000111111001001110100010100100010010011000100000001111001010000000100100010
0000100000010000000000000000000001110000011000000000000001100000000000000010001000100100000000000000001000000000001010000000000000010000001000000001110001000000
0001011100000111010111100100101100010111000000000000010000001011010001000100010101101101000101110100011100000101010001100100000101001101010011100000001001000100
1101110111111110111110100110011101111111101010101111111111101101001010010100100101111111001110100111100101111100011110101111100111111001011011011111111101111111
1000011111110011110001011000011111100011011011011011010110111101001010110011010100111110000110000111100100010000000110000011101000011000010000000000000000000000
0000001001100010000000001100000010010100100000100100001001000100011100001100100000010100000010100001101110010100110101000000000101011000011010001000001100000000
0001000000000110011000101010101010110010101011001000000010000110110010000000101011011110100001101010111110110100000100101111000000111010001100000010100000100100
0011110000110110011101100011010000111110011101100011011001110010010001001111011011111110011111100111111011110000011100101111010001110110010001101010110000000110
0000000000000000000001000000000011001000011000001000011101111100111110001101111011011101001110100011111111110110111001110000110011000101001011110100110000011101
0110000101000011111000011010001101100001111011101011011101100111011011001010010011100011111001111010011011100011000000001110100101101001000010000000000000000000
0000000100110000001000000000001000100001000010110000001100100001000000110000001000000100000000000010000100000001000000000001100010010000000010000000000000000011
1100100000001100111011000000110001001000011001000010100011101100001010001110100000001010010011000010100001001001100010100100100010101000010001000100110000001000
1111010010000001100100001111100100100000100100011001000100010000010100010001000110010101101101011011110011000000100100001001110000010000000111010001100000011000
1100010000000000000010000101010000010001000001101110100100100101101011000000111110010001010101001000010100001110100000100001001001001000010010001101010110000000
0000000011100111100001111000000100000011000000110000000100100011100000000001000000000000001010001011000000011010011111010110011011111110011110011111110011111101
0000011100110100101100100010000001000110111001100110111001010110000001010110011100000000101001001010010100100110010011110000010100100110000101010000010101110001
0011000001010001110101001011111000100000100101001001011010010100110100011001010110010100110101011010010111010101101101101000110000010111010000110000000100000000
1000000010000000000001000000000000000000111100000100000010000000000000001010000100100000000000101000000000000000000000000000010001000010000100000000100000001000
0111110011111010011100100000110001001000010000000000100001100000000010000110100001000010010110000110101001000000010010110110100001101000010110000111100001011010
1010000010001100110011001001110010011101100001001000010110010100101001001000000010010100100011001000010010000101001001000000000010010110000101001100000000000000
1100100000000100100000000101000001010100000000000000100001000110000000100000000000010010011000001100010000000010100000100000000001000000010001000100000000001000
1111110111011111111001110000001100001101010010111000101011100110100010001100000001100010000001000000000000000000000110000111000000101000011111001111101011111111
1111111011011100110110001100110010000000101111101001110011001000111111001011100010011000110000101011100011011000100010100000100010100010001001101000010010110111
1101011111111111111111111100011101000111101111111111011101011111100111110111111101111101110100110101001010001111111111000111011100001001100011111011101111011111
0011010111101101001001110000011100001001000100110010011100001001001101110001010100000101000010110101011000100001010101110010011100001011001001110010111100111001
0000110001000000010010001000101001101000011011000010100011001000001010101000110000001100010011000100100010001010101011100100100100001000001010100010101000001000
0000011001010110000101100101011100110000000010101100111100100000101011100100101110010001101111101110001110100000100010001000000111100000100011001000001000000100
1100110011000000000000100000011011110100110110101100011011111000101000100100011011001110110000101100001001110000101001111101011001001001110011101100101011111111
0001100000001100010000000100000101010011101000011000100111100010011100001000101101010101010000000010100100010101110001010110000001001011111000010100101000100000
0000001000000000000000100000001100000101100000000000100000001101000000111000010100000010000000100001100000001000010111100100000001000111011001111001001100000000
0001001000000010000100000100011000000010000100110001001001110010000110100001001001001010000000100101001000000000000100000000001001001010001110100101001001000100
0000000000000000000000000000000010000000000000000000000000000000000000001000000000000000000000001000001010000001100000000000010000000000000000000000000000000000
1111010000111101101110100110010000110101110010001001111001101100011010000100100101101001001010000100101101110101111110000111100101011000001111000111010001111000
0100000001100111101010001100100000000001000000000000001000100000111000000000100000110000001000101000101010010100011110100001000110000010000010001100001000000000
0000000000000100001100000001010001001100110010001000101011001111011010101101111100011110000101001011011111010110110111100011011011010010100000000011001100000111
1100100011001000111010001101110011011001111110111111100011111101101110001011100011111100010110000011100001101000001110000001100011010000001010000010000000001000
0000000000000000001000010100000010000000000100111000001100000100000000000000000000010000000000000000000000000000000000000000000000000000000000000100000000000000
1111001111111110111111111111111111111111111110110111111111101100001111011101100111111111111011101111111101111111111011111111110111111111101111111111111111111111
1100101001000010010000111100001111100111110000101100011101101111111001111110011111101111111001111100111100100110110011101100011111001111110011100110111101000100
1100110011001000110010011000100011001000110010111000100011001001101011101000110110001000100011101100100011001001100011101000110010101010100001011000100011101101
1000101111001001000110011101110111111001000110001000100001001010000100010000100010001001000100010000010101001000010110100000000011010000000101000010011010010110
0000011001100110100000110000000000011000000010000000011000110000000010000000010110001100000110010000001110000100000101001000010110100010001110110001001111000101
0111111111111110111111110111111111111111111111110111111101111110101111110111111101111111101111011111111101111111011111111111011111111111111111110111111111111111
1000000000000100101010001000000001110000100001001010100000000000100010001010100101110110000011100000010011101000100001101010000010110000000000001100100010000000
0100010111111111111100110101110111011111111011011101111011101110101010001110111111111111111111101111101111010110011110000111000111111111111111010111111101111110
0011100000110000001110000011100000101011101010100100010000001111011011100000101001001101001011101010001011001001001011001100101111001101111011111100111100001111
1000000000100100010100000100000010000110101010001100100010010010000010001000000100010000010001000010000110100000100001010010000001111011110000000100000010100000
0000000000100000001000000010000001111000111110001111111011111111000111001100111011111111111110010001111101001010110110110100001101000101001001000000010100000000
0011011101110011111001101111001101110111001001111011000011011111000101110010010000100000001001001100001000101101000010001110000000100000010010001000101010011000
0000101000010010000110100011000000011000000111110111100110011010000110100100101100010111000110100001000100001011000110010000100101011001000000010011100100011101
0000011100010110000011000000111100001111100011110001001100000101100101011000000000001111001011010001010100001111011001000111011100100110100001000010011110101111
0111000101110111011010110100110101111111101010110111111001101110001010100110110111001101011011010110110101111101011111011111110101111111011111011111111011111101
1111110111111110111111100110110111111111101011001001111111111110101111101110111111011111011011111111111111111110111111111111111111011110011111001111111001111101
1110100111001001110010001000100110001001110000010001001100001000110110000001100000001000100010001000110010001010101110011001100110011010110110111111100111101011
1100000001100010000000000101100010010101100101001010010101010100101000001100010100000101001001100000100010110100000001001010100111001001110000000000000011000100
1110101111111001101111110111011110001101110101111101111111101101101100111001011100000111110101100111001001101111110000111001111101001011110111110011111111111111
0000000000010000001100000001010011010011111111101001011111111110001111101110101110010111110111111100101111100100000000100000001000000000000000000000000000000000
1100110111111100010100011000001110000001010000010100000110000001000001011100001101000000000000100100001000100000110001011100010110100001000000000000001100000001
1111100010110000011111100001111000110010001100100000001000000100000101100000011000000000000000000000000010001011110010011100100110001011101110011110110101011101
0100011010010101010100000000001100000011010000010110001100000010010000011110001001000001000000010000001010101000100000110100001100000010000000011000011100100001
0000010100001001101010110001110010001001000000110000010101001001000000000000011010111101010110010000001100000000110001010000011110000000100010111000110110011001
0011101100001000010110100011110100011100000110010010100000101010000111000011000000001010001110000011100000011000011110000110101001101010000110100110110000011010
1000000000000001100000000100000001110100101011000100000001010101101010001110100100000100000011000011000111111100000001000101000111111000100010001101000100110000
1011011111111110011101111101111100111110000100011111010011101110001111111101011101101010101110010101101110000001111001110101111001111111100001110111110010001111
0000000000010100011000000000000001110001101000000000000100100100000100000100001000001101001000000110000100000100010011000100000101001000001000000000001101000000
0111000010110000111100101101001111110011111100111111001011010011111000110110010010000010110001110000001100000000001000010000001010001000010010001000100000001110
0000001000000010100000001000001000000111000000001100011000100110000010011110011010101100000101010010111000100110010000101001110100110010001000000100011100100001
0111111100111110111111111111111011111111101111111011111011111110111111001111110001111101111111111111110011111111011111111111111010111111111111111111111111111111
1110010111001000010000001100111111001111110111111000111101001101010011111011110110001101100011111100110111001100110010010100100000000100001011000000100000000100
1101011111111011110110111100111111010001100101111011011111001001010100110011111010100011110110100111101011110111110111100000011010011110100110111110100111011111
0101001010110110010100100000001000110010000000101000001000000110000010100001000000100100001000000111111000101100010010001100001000010100011011111110111101111100
1101110111110001111101110110100100001000010110010011000001000000000000010000010000001000001010000001010000110000000100001001010001100000010011010101110001001001
0001000100011000011001000111100000011000001110000001000000011000010110000001000000000000010010000001000001010000001100000010010001011000000111000010110001010000
0000000000010100010000000000000000001000100010000000000010000000000001000000000010001000000000001010101110000000000100000000000010000000001001000000000000000000
1111110100011101100010001100000011011001101000010101000110010001100110001010100011010001101101000011000111010000101100000011000110011000000110010001100010110101
0101100001011110101110100110111011011100111011001100100111101101111110000101110110011101011110101110100111111111011111011101100111111100111111001111110101111111
0000000101000101010100001110001111100001100000111011010011100111000000100011000110110101101000100011101000011010001110000111101011111001011111000001110000011100
1100100000100110010010100101000001000101100001000000001110001000101110001000100000010101010010101000011100001100000001100011010101010100011001000100001101000000
0110110001011110011010100100010001100011010010100000100001100000011010000100111001001100011011100110100001100110011011100111010001101110101011000111110011111010
0100111111000101010000010100001001100000000001111101001001000110011111010010010000001111010011111111110001110100000100001110110000011000001000001010101000000010
0001000000010000000000000010000000111000000000000000000000001010010100011100001101000110011010011010000101001111011001111100111111101101011011011111111101111100
0100001000110111010000100000001100010000010000100100101100100001010010100100001101010001000100101110001101010010010000000100000101001010000011000101001100000001
1001101000011000000111001011101100010000000110110001001100001010000110000100001000011010011110000001011000011001000111000101001100011000000100001100011001000010
0001100111011101100110000000000000110000000100000001100000110000011100000001000000011100000100001001011001011000111100001101001111011001110111001110110011111001
0010010001100110101010001110000010110110101011101110001000000010110011010010010000101100101100001000010100010000001010100111010010000111001001001010000010000000
1011100010011000000010101010111101000000000011010001100000011100000100010010011000000010100000010000100000000100000001100100001000000110000000101101100000010001
1111101000111111111110111110011110111111101011101010101111001111010111000100100111001100011011110110110111111101011010010101110111001001011011000111110001111000
1110100111001111010100011001110010000101110110010101110000000000100101000011100010011100100011001000010000001100000000000001000000000011100000001000000000100010
0111100101100000101110000111100000100000100000110110000100010001000100000001000101010000001100011010100111001011000011010011001110010010010001000101000000001000
0000000000000100000000000000010110000100110010001100111110001111110011111000111110001111000001011000000100001100010010011100110101001101110011111111101101101001
1100000010011010000000100100001011101001011010010100101100000001000101001000000100000000001000110001110100000001001100010101110101000001001001000000000100000001
0000010100011001100010010000010000010100000010000000010000001100000011000000010100011101000010001100010101010100000001000101011100100011100000011101010100010101
0101110100001100001010000111110001001000000000000101100100011000011110010001100001010100000110000000110000111000001111000000110011001001100111010010100110011001
1100111111001001110010011010100101100000110000000110010011000000100010001000100101001000100010001110100011101010110011111100100111101010000000011100101011101111
1111100111111111011110101111101110111100011010100110111000000000101010000000010000001000100000000100100000000000001000000001001010000000100000101000000110100011
1100000100001101001000010000000100100001000100001000000100101001001100010001100000101000000010011000001101101100110001000100101011001111101111001111111010011011
0001111110111011001100101011011000111011001100000011011001110011000001110010001000000110110000001100001101100001101001001100100001001000010000000100000000000001
0000010000000100000000000000010001101100001111001010011010101100101010011110110010101101001001011110110011100100111011010111011101100100001011011110000000101101
0111101111111011010110111111111111101111110110111001011101011010101100110111011101101101110101110111111101111011110101110001011101111110111011111111111101001001
1000010000110100100011001010100010101110111010001000000010111110101001001011111010011010101000000000011000111110100000001101110010010110000100001000100011010110
0000100000000100100000000000000010110000101010000000000000000000000100000000000100000000001000000100000000000001011000010100000100010001000000010000000101001001
